<unk>
<pad>
<s>
</s>
,
▁the
.
▁and
▁of
▁to
▁verse
▁you
s
▁he
▁a
▁in
▁for
▁will
▁i
▁that
▁"
n
▁is
ing
'
▁god
▁they
ed
▁his
▁but
▁be
▁with
t
▁was
▁who
▁him
▁your
▁not
▁it
▁as
▁have
▁are
▁from
▁all
▁them
▁me
y
▁lord
▁jesus
▁people
▁so
▁this
▁my
▁we
▁m
er
▁on
i
e
\
▁b
a
▁s
▁their
:
▁then
▁when
."
o
▁said
▁p
ly
;
m
▁l
▁c
▁by
▁if
?
▁man
▁f
▁one
▁do
▁were
p
▁t
▁what
.\
l
▁had
es
▁d
b
an
al
!
g
ar
u
▁h
it
▁us
▁has
w
▁at
▁there
c
▁son
▁pr
th
▁st
▁w
or
▁out
in
▁g
h
r
▁she
▁no
▁those
as
▁her
]
on
▁[
▁or
▁up
ers
▁our
▁christ
d
▁--
▁good
▁am
▁about
▁e
▁know
▁o
▁an
▁now
▁can
om
is
▁father
ent
▁king
▁because
▁r
▁into
et
en
us
6
f
at
▁even
▁n
-
▁don
▁come
▁like
▁day
est
se
▁say
eth
le
▁spirit
re
▁these
▁j
▁give
▁things
▁go
▁over
ri
▁other
▁se
▁sh
▁person
ion
ow
▁'
▁\
ot
?"
▁heaven
▁shall
▁let
▁life
!"
▁time
▁earth
ce
▁love
▁been
il
ver
▁how
:1
▁came
ir
▁way
id
▁right
ad
▁every
im
▁law
▁great
ch
▁went
and
▁after
▁also
k
xb
▁th
▁own
▁must
▁see
st
▁4
▁before
am
▁holy
▁work
he
▁some
▁ro
▁2
▁more
▁world
,"
▁v
ct
ve
are
▁2.
▁down
ves
▁told
▁3.
el
▁sin
z
▁should
▁4.
▁many
▁away
▁just
ra
▁again
▁unto
ill
▁would
ine
▁5.
▁6.
▁only
ation
▁evil
▁made
▁10.
▁than
v
ate
▁7.
▁tell
▁men
if
▁8.
▁name
▁israel
▁same
▁against
▁9.
ah
▁11.
▁through
▁asked
▁did
▁12.
▁house
▁ex
▁which
ness
▁13.
▁eat
▁never
▁saw
▁sent
▁make
▁live
▁re
▁faith
▁heart
▁disciples
ab
ant
ck
▁ch
ll
▁14.
▁ab
▁replied
ide
:2
ain
▁heard
▁children
▁want
ur
▁where
our
▁
▁called
ish
▁un
▁thou
ro
▁sp
▁anyone
▁pro
ings
▁wicked
ast
▁15.
▁land
em
▁back
▁chapter
▁first
ic
ous
sed
▁dead
▁power
ort
um
▁jerusalem
▁here
▁command
▁given
ful
the
ut
▁16.
▁any
▁could
▁gave
▁become
▁paul
▁thy
▁hand
ay
ose
▁city
ive
ty
▁pre
▁wise
▁each
▁truth
ust
▁everything
▁why
op
▁17.
ered
ge
ol
▁kingdom
ea
▁among
▁sa
▁18.
ry
▁5
▁de
▁lo
ear
ke
ure
▁bring
ight
od
▁woman
ise
▁left
▁put
▁everyone
you
▁days
ul
▁two
ist
x
▁place
▁fl
▁help
all
ans
ard
ite
nif
▁others
ance
▁may
ity
▁3
ac
▁(
▁19.
▁agent
▁peter
.'
▁take
ter
▁brothers
▁pray
▁took
▁words
▁get
▁rep
iah
▁honor
orn
▁20.
▁death
▁keep
▁li
ence
ses
0
less
▁pl
▁very
▁its
▁glory
▁think
▁exp
▁follow
▁john
▁sins
▁done
▁end
here
ice
▁abraham
▁understand
▁upon
ome
▁believe
▁himself
▁temple
▁21.
▁show
ake
▁another
▁hear
▁wife
▁co
▁con
▁per
ect
ried
▁new
li
▁body
ell
▁living
▁until
2
ru
▁brought
ath
ci
ven
▁dis
▁jews
▁saying
▁does
▁home
▁mother
▁u
j
led
▁need
▁off
▁says
ces
nt
▁ask
▁light
▁long
▁speak
ip
ment
ss
▁thee
▁sc
▁wisdom
ving
ove
▁began
▁message
▁obey
▁righteous
5
▁cause
▁years
age
▁fa
ag
az
▁kind
ning
▁22.
▁far
▁find
▁qu
ord
▁ar
▁found
▁without
ble
▁head
▁proverbs
▁while
▁wr
ies
▁together
7
qu
▁money
▁much
▁water
1
able
▁die
ig
▁23.
▁cl
▁wor
ap
nd
ue
▁fall
ally
ep
ud
▁strong
▁walk
un
ced
so
▁24.
▁ha
▁talk
les
ts
▁acc
▁high
▁listen
▁look
▁priests
▁set
▁word
ors
▁eyes
▁food
▁nothing
end
▁rest
▁worship
ak
ches
ore
▁1
▁coming
▁drink
▁night
▁someone
▁angel
▁care
▁part
▁peace
▁poor
▁three
▁tre
▁y
hes
▁believers
▁joy
▁old
▁return
med
▁fire
▁mouth
▁servant
8
▁ear
▁send
ere
▁sisters
hen
▁seven
▁too
▁turn
ok
ost
▁well
ated
ia
red
▁didn
▁hands
▁offer
9
la
▁25.
▁6
▁dec
▁destroy
▁family
▁moses
oth
▁child
▁ra
▁sign
be
ied
ished
ound
▁fear
▁true
▁wi
but
▁cr
▁gra
▁im
▁receive
ai
▁bo
▁brother
▁crowd
▁call
▁inst
▁kill
hed
sh
▁26.
▁gold
▁little
▁though
▁authority
▁being
▁david
▁judah
▁ne
ved
▁comes
▁mo
▁po
▁scriptures
▁seed
▁stand
art
ple
▁belong
▁ever
▁fe
▁news
▁su
▁under
▁young
ess
▁grace
▁mar
▁ri
ened
ho
▁27.
▁always
▁church
▁sons
ince
▁br
▁feet
▁full
▁lives
▁soon
▁still
▁z
als
ions
ld
▁app
▁fruit
▁going
ction
ged
ign
▁accept
▁bad
▁died
▁filled
▁forever
▁happen
▁near
▁town
hold
ult
▁judgment
▁wine
▁wrong
mb
▁along
▁gentiles
▁stay
▁such
ever
▁ad
▁better
▁doing
▁hard
what
▁cannot
▁human
▁meet
▁whom
ars
▁comp
▁face
▁prophets
▁rej
▁seen
reat
▁k
▁means
▁praise
▁soul
▁whole
ase
ress
▁fool
▁mak
▁res
▁sinn
▁sm
fe
we
▁28.
▁sl
▁teach
▁themselves
▁tree
:3
ind
ood
ther
▁both
▁bu
▁gu
▁hope
▁inc
▁jud
▁nor
▁ru
▁trust
3
one
▁action
▁rich
▁thing
▁wall
▁ye
ons
▁dear
▁hath
▁yet
ie
ile
▁around
▁hearts
ants
pt
▁al
▁arm
▁bless
▁blood
▁bread
)
4
ou
ward
▁angels
▁jewish
▁le
▁leaders
▁ple
▁returned
▁voice
ach
atter
▁bl
▁tr
▁won
ared
ith
ters
▁30.
▁ent
▁knowledge
▁la
▁messiah
▁rul
ail
for
os
ree
▁fell
▁resp
▁understanding
ick
ire
▁comm
▁eternal
▁field
▁nations
▁stop
▁wit
▁women
ize
▁four
▁last
▁lived
▁rem
▁throw
▁vi
ook
▁29.
▁became
▁finish
▁servants
ff
▁born
▁enter
▁gener
▁ground
▁priest
▁real
▁suffer
▁turned
ber
ted
▁31.
▁ag
▁husband
▁later
▁mean
▁mercy
▁plan
▁prophet
▁since
▁str
uch
▁prov
▁teaching
▁wild
bed
ew
self
▁beast
▁hon
▁pharisees
▁prep
▁rec
▁religious
▁written
ched
▁afraid
▁cons
▁creat
▁faithful
▁fin
▁learn
▁mirac
▁pla
▁sure
▁taken
▁12
▁7
▁deep
▁desire
▁happened
▁harvest
▁morning
▁tri
▁trouble
aster
▁anything
▁build
▁gift
▁punish
▁remain
▁sick
▁silver
▁test
ne
thy
▁att
▁bro
▁cour
▁fr
▁gone
▁please
▁pur
▁standing
eal
nder
nw
▁8
▁healed
▁next
ines
ond
ray
▁greater
▁guard
▁har
▁opp
ame
ash
cked
hem
▁raised
▁reg
▁requ
▁stood
ght
ites
of
rew
▁arrived
▁aw
▁gl
9.
ached
ious
live
ote
per
vent
▁anger
▁continue
▁cur
▁deli
▁destroyed
▁looked
▁pay
▁sw
▁thought
▁throne
ass
ments
▁13
▁32.
▁celebr
▁conf
▁covenant
▁else
▁enemies
▁friend
▁grow
▁reward
▁saved
▁thank
▁thine
▁yourselves
aiah
ale
asure
ations
ued
ues
▁friends
▁lead
▁teachers
▁try
de
ling
ob
▁33.
▁encoura
▁killed
▁leave
▁mountain
▁ps
▁shalt
▁use
▁yourself
ired
ns
oud
ying
▁already
▁apostles
▁future
▁govern
▁gre
▁salvation
▁share
,'
cif
lf
▁adv
▁beg
▁egypt
▁foolish
▁gives
▁pos
▁sorrow
amp
ange
cious
ected
hile
ory
own
▁14
▁ancestors
▁answer
▁certain
▁disc
▁galilee
▁grain
▁imp
▁lea
▁leading
▁promise
▁save
▁times
▁vis
▁wait
▁ways
ft
her
lain
why
▁belie
▁dist
▁free
▁godly
▁heal
▁sea
▁sit
▁weak
▁wind
:\
ang
ian
ible
ock
ute
▁10
▁19
▁break
▁darkness
▁enough
▁hate
▁judge
▁kings
▁lips
▁pass
▁shout
▁spe
▁stone
"
1.
iting
ount
this
ting
▁clean
▁dece
▁sabbath
▁speaking
▁spoke
▁tra
2.
claim
ities
ned
nhe
▁35.
▁boast
▁bodies
▁bur
▁correct
▁forth
▁hum
▁ins
▁mind
▁nation
▁pilate
▁shame
▁sing
▁tru
ited
ized
mp
og
owed
pp
▁able
▁burn
▁descend
▁en
▁fo
▁fore
▁mighty
▁resc
▁serve
▁sleep
▁whe
den
fore
ined
up
▁11
▁begin
▁clothes
▁desp
▁eli
▁ham
▁hur
▁large
▁yes
aby
ich
ont
ual
▁17
▁34.
▁daniel
▁fulf
▁philist
▁pri
▁prison
▁prop
▁remember
▁sheep
▁simon
▁sn
▁something
▁sur
▁swe
ased
iv
my
then
ub
▁18
▁begat
▁beh
▁cast
▁coll
▁cont
▁cut
▁elders
▁establ
▁forg
▁hu
▁hundred
▁plant
▁rebu
▁wanted
alm
ather
ek
sel
vid
▁ahead
▁dep
▁idol
▁knew
▁might
▁received
▁refu
▁rise
▁rule
▁stri
▁watch
arn
au
cept
ens
oc
row
▁16
▁alone
▁angry
▁between
▁dest
▁giving
▁herod
▁hold
▁instruction
▁kept
▁neighb
▁once
arch
ary
aught
ave
day
don
ped
reed
vers
vil
▁abram
▁believed
▁char
▁crow
▁preach
▁refuse
▁sla
▁sword
▁tou
▁year
00
fully
nts
oice
side
zar
▁37.
▁door
▁int
▁led
▁named
▁open
▁strength
▁supp
air
atch
av
ax
iled
iness
ix
iz
lord
mer
pped
uddenly
▁bear
▁blind
▁def
▁demand
▁heavens
▁ign
▁telling
.'"
3.
attle
itting
ship
▁15
▁24
▁36.
▁bapt
▁blessed
▁cloth
▁condem
▁count
▁crowds
▁eag
▁false
▁favor
▁flesh
▁followed
▁group
▁letter
▁path
▁produ
▁really
▁rom
▁sacrifice
▁sat
▁sk
▁ten
▁third
▁throughout
▁whose
ace
ark
ec
irm
irst
ph
right
ten
▁21
▁9
▁ass
▁coun
▁cru
▁daughters
▁gr
▁hung
▁lay
▁mary
▁mordecai
▁preaching
▁ready
▁respect
▁righteousness
▁sacrifices
▁second
▁seek
▁warn
▁whatever
anger
ately
cy
ead
ib
pe
ressed
vered
▁arg
▁circum
▁dev
▁dra
▁escap
▁fight
▁important
▁kn
▁leader
▁none
▁ord
▁quest
▁sar
▁spread
▁sun
amb
bles
ici
igh
itt
ken
ner
ows
▁act
▁arrest
▁chosen
▁cross
▁den
▁esther
▁hid
▁inherit
▁pati
▁secret
▁twelve
▁war
▁waters
▁wh
4.
aid
ets
ins
nf
no
ong
oun
▁across
▁alt
▁animals
▁attention
▁beaut
▁beth
▁bird
▁instead
▁longer
▁loved
▁offic
▁op
▁pra
▁prayer
▁presence
▁proud
▁sub
▁therefore
▁vision
),
.)
5.
ages
aves
fied
how
ones
orious
out
that
▁23
▁boat
▁confid
▁cry
▁decla
▁enemy
▁entire
▁fellow
▁forgi
▁gathered
▁hor
▁inv
▁ones
▁ordered
▁promised
▁revealed
▁samson
▁ser
▁soldi
▁spiritual
▁toward
▁trave
▁wonderful
2019
ait
ason
bs
cause
ern
ilt
mon
ots
ruction
ures
▁adulter
▁appeared
▁armies
▁carry
▁clear
▁control
▁demons
▁fam
▁fast
▁five
▁fort
▁gate
▁gather
▁langu
▁noah
▁offici
▁persec
▁read
▁reign
▁sam
ates
ature
cher
ense
erness
go
ior
ng
ren
ull
ush
yes
▁answ
▁contin
▁country
▁during
▁greet
▁inter
▁james
▁join
▁neither
▁rel
▁satis
▁te
▁tw
ames
elt
ently
ief
ility
jah
lease
lon
look
man
nes
ople
ored
ought
seng
upid
yal
▁20
▁38.
▁adam
▁appointed
▁baptized
▁bet
▁capt
▁che
▁complete
▁di
▁enjoy
▁knows
▁levites
▁mer
▁murd
▁past
▁phil
▁public
▁repent
▁sinful
▁slave
▁taught
▁terrible
▁used
▁weep
▁welc
!'
8.
:4
empt
esh
oseph
ps
urn
▁40.
▁amaz
▁bene
▁deeds
▁deser
▁differ
▁dre
▁gif
▁lies
▁outside
▁perfect
▁saul
▁shouted
▁stor
▁stre
▁synagogue
▁tongue
app
aring
cess
cised
laim
ower
your
▁div
▁eye
▁glad
▁jo
▁mes
▁ref
ret
▁car
▁des
▁gat
6.
att
res
▁com
--
ert
oke
▁prese
▁daught
arge
ink
uth
▁dem
▁reb
abb
illed
orrow
ough
▁trou
erse
ild
ould
▁cor
▁happ
7.
ater
lie
▁dark
▁reve
ember
isten
other
▁judg
ele
hy
ised
outh
round
▁chose
▁chur
0.
emple
very
▁sec
imon
ither
old
selves
▁jes
ade
get
▁arri
▁ba
▁tak
alt
▁bel
▁es
▁sis
eter
ham
ield
te
▁jew
ati
aul
q
▁ap
▁disci
▁suff
▁terri
▁wat
oses
▁apost
▁prophe
▁sil
ani
ison
ived
oney
ountain
uring
way
▁bre
▁clot
▁discip
▁streng
apt
hing
isdom
read
rough
yone
ices
leep
xt
▁anim
▁serv
ause
cri
stand
▁id
▁ter
ily
wn
▁lev
▁pun
ird
son
▁jer
▁prom
▁sold
▁synagog
▁wonder
aled
amed
eared
ev
oin
▁ang
▁gent
▁tong
rol
▁bles
▁cle
▁dr
▁hop
▁pe
▁teacher
201
bey
eds
vest
▁fri
▁pers
▁ph
aven
gh
head
oura
thing
▁foll
▁som
▁whi
ene
iles
rist
rou
▁sy
alk
cend
ention
fer
▁fav
hat
▁ancest
▁bec
▁rece
▁script
lp
rect
▁author
▁gen
▁phar
▁ret
▁wom
*
eak
fect
nce
ointed
▁comple
▁unt
angu
tern
verbs
▁af
▁dif
▁relig
▁wo
(
eous
hn
ircum
udden
▁eld
▁est
▁gal
fter
ledge
oul
oy
▁ac
▁cond
cript
elve
gel
ulf
uture
▁grou
▁pharise
▁sacrif
▁thr
coura
lic
lied
not
ways
▁ke
▁tea
▁tim
br
dom
vation
▁ey
▁pub
▁sal
alem
gether
hered
irc
itten
lig
ouse
ross
roud
vern
▁galile
▁mess
&
20
<
>
cap
ertain
ilate
irit
oly
rael
rest
sw
ully
▁gi
▁sacri
gy
joy
odu
ortant
raham
raid
rought
▁coven
▁el
▁inher
▁mir
▁mur
/
agog
aniel
aut
avid
ittle
ndred
ram
roy
uit
usband
▁bod
▁etern
▁morn
▁perse
[
abbath
alse
cest
elebr
ething
gypt
nagog
ordecai
ready
uthor
ween
▁chap
