<unk>
<pad>
<s>
</s>
>
▁<
▁<2
▁<4
dict
de
br
pt
en
us
,
▁the
.
sent
ca
fr
-
▁and
s
▁to
▁Verse
▁of
a
t
n
o
ar
▁a
▁you
ing
er
ed
▁in
es
al
y
m
i
▁I
l
or
▁he
an
▁S
u
c
p
e
▁m
in
r
g
b
▁p
▁will
on
_
is
'
▁for
f
▁that
▁C
re
▁"
▁be
at
it
▁P
▁b
▁c
le
▁s
as
▁A
▁rwth
▁is
d
▁M
el
ir
▁de
▁f
▁B
se
▁God
▁l
▁his
il
▁
▁E
ia
A
te
h
v
ro
k
▁with
▁was
▁G
ra
st
▁d
ur
▁they
▁t
2
z
os
▁T
w
▁F
ol
▁him
é
▁g
▁not
1
▁who
▁me
ent
▁L
▁your
ch
ic
th
ig
3
O
am
om
▁all
et
▁H
▁2
▁do
▁are
▁re
▁R
▁them
▁And
5
▁D
\
ter
▁have
I
:
un
▁w
▁from
▁v
▁on
▁Jesus
▁it
ha
▁h
▁st
4
)
▁people
▁as
▁K
ut
▁N
E
im
▁we
ão
▁but
ie
▁3
um
S
6
▁n
der
x
ot
9
▁r
▁my
▁W
ve
he
8
?
ion
▁The
▁He
ho
▁ca
ly
▁J
L
▁se
id
T
est
7
em
ag
▁their
ge
D
▁(
▁e
."
ce
ll
▁an
ou
ul
ant
▁this
to
ung
ac
io
R
.\
U
▁so
▁o
!
ad
ü
▁man
▁V
ation
▁said
ver
la
ab
ä
;
C
▁But
á
qu
▁at
ist
▁O
0
ri
▁were
ine
▁or
200
▁ab
▁by
M
be
▁no
▁am
í
P
▁con
me
▁one
▁what
ate
▁j
▁had
ow
▁Pr
ne
▁LORD
▁out
and
ide
ers
▁Then
au
▁us
end
▁al
B
]
ip
ure
▁qu
▁4
▁[
▁ver
ast
co
▁So
N
▁br
pe
if
▁up
ah
▁go
▁know
iz
▁when
ica
▁if
▁her
▁ro
▁sa
▁there
one
▁ex
ap
ort
▁co
ive
ado
ct
▁For
ud
ber
▁un
op
che
▁pro
ment
▁Lord
ira
ma
▁1
▁ha
ire
ug
ill
ke
▁can
▁k
ay
ise
ain
H
ck
▁has
do
nd
so
▁ar
ass
ess
▁pr
G
▁le
her
our
oc
j
up
ai
ry
▁Christ
▁come
ina
ind
ção
▁about
lo
▁she
▁per
od
▁sin
▁those
ak
ian
av
ens
00
ard
ente
iv
AR
W
▁-
ord
ó
10
art
ies
▁our
ish
ier
▁sp
les
▁5
are
▁They
▁es
▁en
ach
hr
all
fe
▁In
▁--
▁bo
▁ra
▁into
ont
F
▁Mar
▁tr
▁person
ness
▁because
▁pre
▁good
ign
▁day
res
ust
ze
▁way
ight
▁give
ub
▁say
ite
ran
▁cl
sch
ss
▁gr
▁gra
▁like
▁king
ice
sc
V
ile
und
ost
▁right
201
▁SC
▁You
▁fe
▁son
▁tra
?"
iro
▁lo
▁over
ful
cer
▁see
▁time
ble
▁An
ação
ru
ib
▁things
!"
▁When
iah
▁Z
▁CM
▁Sch
▁car
ok
ça
▁other
▁¶
▁th
ico
ue
▁Al
▁love
▁even
▁Ar
sp
har
▁Be
▁great
▁pl
ep
ix
nt
▁MEL
fer
ais
sed
▁com
▁par
▁shall
▁fa
▁mar
:1
ö
▁went
red
▁em
hen
▁U
po
▁down
ik
we
ult
▁let
ual
▁St
per
▁name
▁earth
mer
▁ne
▁don
▁than
▁these
▁est
az
▁'
▁mo
▁Re
▁heaven
▁before
og
▁fl
ê
▁came
▁men
▁own
han
ten
bo
AN
gu
▁how
▁must
rit
ved
▁tell
ath
▁da
▁life
▁fr
▁some
ER
▁z
ß
ick
pl
▁then
▁been
▁não
(
int
led
▁faith
▁law
ien
men
use
▁po
▁é
ded
▁through
age
gen
▁Le
ner
▁ad
▁look
ings
è
▁away
▁want
cl
ress
▁2.
▁now
gar
iss
▁4.
▁also
>\
va
ven
▁ent
row
▁heart
▁same
▁work
ade
ff
ious
▁des
da
ase
orn
▁more
cha
▁every
▁sha
ich
idade
ome
pp
ç
ert
ity
ore
▁sent
,"
▁3.
▁again
▁back
▁rep
▁many
iel
ock
▁5.
man
▁ter
du
▁6.
▁Ab
▁hand
▁dis
▁only
▁understand
old
▁told
icht
▁8.
eb
ria
▁6
▁should
▁As
▁sh
ft
▁evil
▁7.
cia
▁We
▁Israel
▁just
▁asked
▁would
ern
(2)
chen
que
▁two
ura
▁10.
▁9.
▁comp
▁saw
ger
▁11.
▁ac
▁bl
▁cor
ere
▁Ver
▁left
ial
▁world
:2
▁Paul
▁pe
▁res
uf
vo
▁12.
▁13.
▁make
▁sign
▁te
/
out
▁eat
ance
ew
▁made
▁never
ana
den
ous
▁sch
ima
ú
▁against
▁any
able
here
▁cont
▁disciples
▁Lu
▁house
(1)
OS
â
▁father
jo
ward
ond
▁Spirit
▁long
▁wicked
ty
▁help
▁para
<
cre
▁ag
▁Chapter
▁after
▁ol
▁replied
▁where
ars
ong
▁Q
mo
▁Se
▁follow
▁live
▁children
AS
▁14.
▁beg
▁which
ito
ada
let
mb
▁li
▁rem
J
▁que
▁unto
ans
▁15.
inho
ste
"
ato
ound
▁ch
▁did
ES
lich
ieren
ts
20
▁el
▁first
▁wise
ves
▁She
▁called
▁sinal
▁turn
IS
ias
▁Deus
▁ap
ild
ors
▁heard
▁land
▁Jo
▁acc
▁im
ara
nIf
kt
uch
▁conf
▁take
▁years
ence
ida
ren
▁De
▁get
▁here
RI
▁set
▁woman
▁19
▁It
▁This
▁each
AL
car
▁Ad
▁If
▁pray
The
ater
ora
▁col
ake
▁pessoa
cul
hy
▁16.
▁8
▁servant
go
gra
isch
of
▁No
▁stand
itt
ons
▁agent
no
tar
▁become
▁dead
par
IN
▁Jerusalem
▁Me
▁pass
▁words
.'
▁17.
rar
▁could
▁put
▁thy
ME
▁7
▁ele
▁ye
ng
▁El
▁city
thing
vel
▁days
inha
▁speak
▁truth
▁righteous
arm
hl
▁Son
▁thou
▁tre
dic
hes
oss
ux
▁18.
▁er
▁Y
▁inter
▁UF
ift
▁bar
ene
▁dé
▁power
▁ser
ally
cher
▁app
▁ask
▁everything
▁head
▁sw
ang
ations
ised
▁comm
▁light
ied
sa
▁among
▁inst
▁part
Y
ins
▁Her
▁fool
▁fra
ador
▁why
ree
▁spirit
01
IA
ante
fl
▁Am
▁esc
▁happen
bl
ela
ific
▁att
▁sup
EL
quer
tern
▁Father
▁Peter
▁wor
You
ack
oun
zen
▁destroy
▁gl
▁old
▁place
ale
ction
ht
self
▁anyone
▁cho
ds
hat
▁ang
▁bring
for
ivo
▁everyone
▁ple
▁sal
▁teach
▁very
OR
hed
ras
▁19.
▁Te
▁fal
▁gave
▁won
eth
iar
na
▁home
▁ref
▁reg
▁sur
▁three
aca
af
bre
imento
ple
▁20.
▁fil
▁vis
▁wat
RO
sel
▁Proverbs
▁end
9.
AD
▁show
read
▁nós
▁bu
▁others
▁tem
▁took
ked
▁Pro
▁himself
ido
▁Let
▁um
0.
1.
ino
▁na
▁por
ua
▁Man
▁ass
▁cur
▁kn
▁mas
TO
ime
▁*
▁John
▁water
ely
hn
ize
ps
▁Car
▁dec
▁ear
▁gu
▁hear
▁mother
▁think
sy
▁21.
▁9
▁At
000
form
▁Sign
▁fall
▁given
▁la
▁test
▁There
▁bre
▁dire
▁sem
▁together
ob
rer
▁che
▁god
▁ins
▁resp
▁until
IL
ders
ã
▁Temple
▁face
▁ir
▁liv
▁plan
att
aut
min
▁Un
▁honor
▁mouth
▁new
à
▁wife
este
pre
ude
▁ban
▁brothers
▁wisdom
ben
ph
är
▁cha
▁command
▁mor
▁sins
ace
ait
ique
pr
za
▁cle
▁dia
▁keep
ever
ters
udar
▁death
▁prom
EN
ather
ient
iver
ning
ÃO
▁another
▁glory
▁18
▁Th
▁dem
▁find
▁gre
▁int
▁night
2.
ink
itar
oud
son
▁GLOSSÁRIO
▁off
▁saying
ista
ör
▁anim
▁listen
▁rest
▁tw
arn
day
ember
lic
ês
ô
ür
▁die
▁friend
▁sil
K
ame
inar
nen
ologia
rie
▁brought
▁jo
▁need
▁send
▁walk
iana
ja
left
ola
ried
▁Abraham
▁Is
▁its
▁lead
▁nothing
▁strong
fa
less
ood
vers
ço
▁Fra
▁Jews
▁cro
▁done
▁exp
agem
ba
ove
right
▁Sp
▁believe
▁fin
▁ge
▁poor
fen
ken
land
▁22.
▁cir
▁eu
▁seven
▁while
ough
uss
ute
▁Bo
▁Ol
▁meet
X
pect
ule
▁desc
▁far
▁message
▁ste
TE
des
ged
mp
oup
ull
▁12
▁Ze
▁found
▁money
▁ob
▁open
▁sc
3.
com
urn
▁Con
▁Don
▁call
▁div
▁eyes
▁high
Z
igo
oura
▁10
▁Est
▁Phil
▁began
▁body
▁living
▁upon
▁without
ement
ions
ita
▁sat
▁word
ought
▁23.
▁care
▁ou
▁too
He
als
igh
ior
▁dif
▁fo
▁food
▁offer
▁prophe
▁read
▁someone
▁thee
ison
oso
▁enc
bel
con
iet
ites
ulo
▁crowd
▁fire
▁holy
▁talk
aid
aled
ared
gua
ismo
▁answer
▁ce
▁drink
▁giv
▁vo
dos
imo
ta
ungs
▁Fe
▁av
▁kind
▁nor
▁pal
▁sm
ON
air
vor
ência
▁Br
▁always
▁har
▁near
▁obey
▁sim
▁sy
▁y
ane
dução
ject
leep
ote
ying
ário
ér
▁13
▁Now
▁bad
▁hands
▁priests
▁sor
▁trou
RA
esch
mar
vore
ée
▁Holy
▁around
▁does
▁enem
▁ma
▁much
▁spe
asse
bs
cht
entro
ents
lt
reat
rio
ular
▁bet
▁bir
▁clo
▁family
▁four
▁ve
ago
amb
aus
bro
je
xo
Ç
▁24.
▁bless
▁joy
▁stay
ash
bar
▁His
▁arri
▁pat
▁says
ible
ité
uc
▁Bar
▁Ne
▁angel
▁crow
▁enter
▁fac
▁kill
▁nome
▁sl
▁sla
ince
mel
ruction
var
É
▁25.
▁Fl
▁arm
▁inv
▁little
▁mat
▁worship
MD
ager
ated
ler
▁believers
▁hard
▁sit
ave
gue
ham
ivers
ião
▁Ge
▁On
▁auf
▁dist
▁mer
▁peace
VC
VF
cest
nS
▁11
▁Par
▁min
▁soul
▁sub
104
11
ille
ized
now
own
▁14
▁Do
▁Sam
▁What
▁char
▁child
▁cr
▁mon
▁well
4.
:3
ley
▁cause
▁imp
▁may
▁vocês
103
106
109
50
cy
gel
icar
iter
oke
uz
▁fut
▁hor
▁wit
▁writ
INA
elle
inc
▁Com
▁church
▁under
108
2007
bra
ingu
ição
ray
rom
▁16
▁17
▁belong
▁sho
▁soon
▁still
▁swe
▁town
▁wrong
PO
amp
med
Á
▁Daniel
▁Er
▁Lo
▁Sil
▁bapt
▁id
▁preach
▁rel
▁ré
107
imagem
ished
ks
olo
thy
uito
ula
wer
▁Mo
▁brother
▁bur
▁full
▁nam
▁My
▁Sinal
▁next
▁sec
▁seed
▁tak
▁true
hose
hren
ila
uel
uer
xt
▁Moses
▁both
▁cour
▁prof
▁young
14
EI
ando
cept
iat
ij
iva
ros
▁26.
▁All
▁dar
▁dev
▁lar
▁pra
▁wom
ips
ividade
jet
pa
▁David
▁ke
▁later
▁sacr
But
ete
llen
ump
zer
▁27.
▁Kingdom
▁That
▁comes
▁corre
▁express
▁fear
▁finish
▁learn
▁pres
▁suffer
▁tri
TA
bras
cess
ict
ory
selves
ton
▁King
▁Ma
▁belie
▁pesso
▁sisters
▁ten
5.
aven
dade
dom
gr
ition
ives
ôn
▁Sant
▁adv
▁feet
▁pun
▁shout
▁sons
cial
ified
ush
át
▁En
▁Gal
▁Maria
▁gener
▁human
▁receive
▁such
6.
ander
cal
head
q
ther
uar
▁15
▁Pe
▁died
▁forg
▁pare
▁sick
▁trans
▁wine
abb
ith
rol
ín
▁accept
▁along
▁aut
▁coming
▁gold
▁morning
▁plant
MA
dem
gy
laim
ling
▁0
▁Mor
▁better
▁count
▁dark
▁didn
▁dra
▁might
▁offic
▁opp
▁real
▁return
▁rich
▁stop
▁though
ches
cle
ledge
▁28.
▁Mess
▁met
▁thir
▁throw
▁wind
amento
fore
ief
ience
illed
isar
lly
ountain
sen
vern
▁20
▁action
▁appe
▁ev
▁going
▁relig
aul
imon
upo
uro
▁being
▁bread
▁cannot
▁dan
▁ever
▁hom
▁lives
▁voice
ional
nW
▁After
▁One
▁apost
▁desp
▁forever
▁fre
▁returned
▁sun
IC
urt
▁Phar
▁Scriptures
▁prov
▁sk
▁themselves
▁wall
bal
hão
ined
▁AS
▁fell
▁guard
▁nat
▁sou
▁whole
▁yet
8.
dle
zar
▁authority
▁ed
▁fiel
▁fruit
▁gone
▁last
▁poss
▁pur
7.
inal
ém
▁cal
▁comple
▁gat
▁judgment
▁trust
▁wh
the
xto
▁Jewish
▁clot
▁doing
▁filled
▁fore
▁hon
▁hum
▁husband
▁leave
▁means
▁rece
esso
side
▁Good
▁dear
▁disc
▁fam
aby
phe
vest
▁daugh
▁import
▁jud
▁contin
*
aug
ines
▁afr
▁beca
▁bow
▁hope
▁mercy
▁pri
+
fo
▁praise
▁seen
▁thr
What
▁ey
▁leaders
▁mean
▁thing
Q
Th
stead
very
▁angels
▁continue
▁etern
▁porque
▁ta
olog
▁blood
▁priest
▁também
▁teacher
hold
ived
ned
ount
rength
▁Judah
▁News
▁amar
▁aw
▁since
llow
▁Libras
▁born
▁tree
▁whom
▁Your
▁cat
▁hath
And
riting
▁Gentiles
▁grace
▁ho
ento
get
Ó
▁prophets
anguage
▁ba
ving
way
▁dr
▁hearts
▁rul
▁use
=
angu
@
erson
▁Ap
▁written
come
pen
▁discip
▁happ
ld
If
eter
▁voc
.<
ily
uit
▁dest
inais
▁Jud
▁lea
õ
ife
ilho
irst
ên
other
▁ret
sh
▁bod
▁hel
▁pla
▁próprio
▁sis
▁surdo
ures
▁list
ibras
▁Dan
▁serv
acher
stand
▁gen
cr
ople
’
ower
ship
î
Ü
lood
Í
▁Tem
uth
▁letras
alk
▁bel
wn
Ê
▁mess
û
▁Jer
▁Jes
▁chur
▁Cha
oney
pter
óp
▁mou
▁Jew
▁wis
ould
ós
▁obe
hil
Â
irit
augh
not
▁hop
icked
oses
2)
cri
verbs
▁Gent
iles
́
ews
▁ans
hrist
oug
▁judg
Ä
fter
ï
band
Ã
Ö
Ú
▁suf
▁Dav
&
ambém
gether
oly
til
Ô
▁author
▁fri
ORD
RIO
^
ighte
ways
|
À
ÁRIO
ù
▁Abra
ighteous
“
LOS
cript
ë
▁Script
­
gth
Õ
ittle
roy
€
rael
°
”
▁repl
󽠐
[
`
alem
rong
̈
▁próp
%
1)
usband
~
»
ဂ
ပ
မ
လ
ါ
ာ
ၤ
▁GLOSS
󽠠
#
usalem
wth
«
È
က
—
▁morn
☻
󽠃
󽢷
󽻵
󽻼
󽼒
$
Î
ñ
ý
–
■
☺
♣
♥
￼
󽠒
󽠓
󽠡
󽠤
󽠦
󽠪
󽡼
󽤵
󽦡
󽨗
󽪸
󽻜
󽻠
󽻣
󽻭
󽻮
󽻶
󽼀
󽼃
󽼈
󽼏
󽼝
󽼡
