<unk>
<pad>
<s>
</s>
>
▁<
▁<2
▁<4
dict
de
br
pt
en
us
,
▁the
ca
.
sent
fr
-
▁and
s
▁to
▁Verse
▁of
a
t
n
o
ar
▁a
er
ing
▁you
ed
▁in
es
al
m
y
i
l
or
▁I
an
▁he
u
▁S
c
p
e
▁m
in
r
g
b
▁p
_
on
is
▁will
f
'
▁C
re
▁for
▁P
it
at
▁that
▁b
▁c
le
▁"
▁s
▁be
▁A
▁rwth
as
d
▁M
el
▁is
ir
▁de
▁B
▁f
se
▁l
il
▁
▁E
ia
A
te
h
▁God
▁his
ro
k
v
▁G
▁with
ra
st
▁was
▁d
ur
2
▁t
os
z
▁they
▁F
▁T
ol
w
é
▁g
1
▁him
▁not
ent
▁L
ch
ic
ig
▁me
th
▁who
3
▁your
O
om
am
et
▁2
▁H
▁do
▁all
▁R
5
▁D
▁re
▁are
\
ter
I
un
:
▁them
▁v
ha
▁And
▁have
▁w
4
▁h
▁Jesus
▁from
▁on
▁st
)
▁K
▁it
E
ut
▁N
im
▁people
▁as
ão
ie
▁3
▁we
um
6
S
▁but
▁n
der
9
x
he
ot
8
▁r
ve
▁W
ion
▁ca
▁my
ho
▁J
?
▁The
L
ly
▁He
▁se
id
7
T
em
ag
est
D
ge
▁e
▁(
▁their
ce
ll
ou
ung
ul
to
."
ac
▁an
ant
io
R
U
.\
▁this
ü
▁o
▁V
ad
▁so
la
ver
ation
ä
▁man
C
ab
!
á
qu
▁said
;
▁O
ist
▁But
▁at
0
ri
200
ine
M
▁ab
be
í
▁were
P
▁or
▁am
▁no
me
▁con
▁by
▁j
ate
▁what
▁Pr
▁one
ne
and
au
ow
▁had
ide
ers
▁LORD
▁out
B
]
▁Then
ip
end
▁al
▁[
▁ver
co
▁4
▁qu
N
▁us
ure
pe
▁br
▁So
if
ast
ica
iz
ah
▁go
▁her
▁ro
▁up
ap
one
ado
▁co
ort
▁sa
▁know
▁when
▁there
▁ex
▁if
ber
ud
ive
ct
op
che
▁For
▁un
ma
ment
▁pro
ira
▁1
▁ha
ug
ire
ke
ill
▁k
▁Lord
H
ay
ain
do
▁can
ck
ise
nd
so
▁ar
ass
▁pr
G
ess
▁le
▁has
oc
our
her
ai
j
up
ina
ção
ry
ind
lo
00
od
▁Christ
▁come
▁per
AR
ak
ente
ian
ard
iv
▁-
▁she
▁sin
ens
ó
10
▁about
art
av
ier
W
ord
▁5
▁es
ach
▁en
hr
▁those
are
ies
fe
ish
les
all
▁sp
ont
▁bo
▁our
▁Mar
F
▁They
▁In
▁ra
▁tr
▁--
▁person
▁pre
ze
ign
ness
ust
ran
res
sch
ub
▁because
▁good
▁into
▁cl
ight
ite
V
▁give
sc
▁gra
▁way
ile
ss
und
▁gr
201
▁SC
▁say
ice
ost
▁day
▁like
iro
▁tra
▁fe
▁right
▁king
?"
cer
ação
▁An
▁son
ib
ble
▁CM
▁Sch
▁Z
▁over
▁see
▁car
▁lo
iah
ru
ça
▁When
ful
▁things
!"
▁You
▁¶
ico
▁Al
▁time
har
ue
▁Ar
▁MEL
sp
nt
ok
▁th
▁other
ais
fer
ix
▁Be
▁com
ep
▁pl
ö
▁love
▁par
▁even
▁em
▁fa
:1
▁U
▁mar
ik
sed
hen
▁shall
po
red
ult
▁great
we
▁St
▁ne
ual
▁went
mer
▁name
per
▁down
▁est
▁Re
▁mo
og
ê
az
AN
ten
▁these
bo
▁let
gu
▁than
▁da
▁own
▁don
▁fl
ER
▁'
▁fr
▁z
ß
▁men
han
▁tell
rit
▁earth
▁came
(
ved
▁before
ath
ien
▁não
pl
▁some
▁how
▁é
ick
men
use
▁heaven
gen
▁must
int
led
è
▁Le
▁life
age
▁po
▁look
ner
▁been
▁then
gar
iss
▁ad
ress
cl
▁law
ded
▁2.
▁through
da
va
ade
▁away
▁ent
ff
▁des
▁heart
cha
idade
ç
▁also
▁faith
▁want
>\
ich
ings
ase
▁4.
▁same
pp
row
ious
ven
orn
ert
ome
▁back
ore
▁more
iel
▁every
▁now
▁rep
▁sha
man
▁3.
▁hand
ock
du
icht
ity
▁work
▁Ab
eb
▁6
▁understand
ria
▁dis
▁sent
▁ter
ft
old
▁6.
▁again
▁many
,"
cia
▁5.
▁told
▁As
▁8.
▁evil
▁only
(2)
chen
ern
que
▁asked
ura
▁should
▁Ver
▁would
▁We
▁comp
ger
▁Israel
▁cor
▁sh
uf
▁ac
▁just
▁pe
:2
ere
vo
▁bl
▁left
▁two
/
ial
▁10.
▁7.
▁9.
▁saw
▁te
▁sch
ana
ima
out
ú
ance
▁11.
(1)
able
ous
▁Lu
▁cont
OS
den
â
▁Paul
▁res
ew
▁world
here
▁make
▁eat
▁para
▁sign
▁wicked
jo
ond
▁father
▁made
▁12.
▁house
ward
cre
▁13.
▁against
▁never
▁ol
mo
ong
▁Q
▁any
▁long
AS
▁ag
▁replied
▁Se
▁disciples
ito
▁follow
<
ada
ty
ars
▁Spirit
▁after
▁que
▁where
let
▁Chapter
▁beg
inho
mb
ste
J
ans
ato
▁li
▁live
ES
lich
▁ch
▁help
ieren
20
ts
▁14.
▁unto
IS
▁children
▁sinal
▁wise
▁ap
"
ias
▁rem
▁which
▁She
ara
▁el
kt
nIf
▁15.
▁Jo
▁first
ida
uch
RI
ild
ound
▁turn
ren
▁19
▁acc
▁did
▁im
AL
ves
▁Deus
▁take
▁De
▁conf
▁each
ater
car
ora
▁col
▁set
▁years
ence
▁heard
▁land
▁woman
▁If
▁pessoa
isch
of
▁8
▁get
cul
go
The
gra
no
ors
▁Ad
▁It
▁here
▁servant
▁agent
▁become
IN
ake
hy
par
▁called
itt
tar
▁This
rar
▁Me
ME
▁16.
▁pray
ons
▁No
▁pass
▁stand
inha
ng
▁words
vel
▁El
▁ele
hl
▁put
▁ye
ux
▁7
▁dead
▁er
.'
▁17.
▁city
arm
dic
▁Jerusalem
▁UF
▁tre
▁bar
▁could
▁thy
ene
oss
thing
▁dé
▁inter
cher
▁18.
▁Son
▁righteous
ang
▁Y
▁thou
ift
sa
▁days
▁part
hes
ied
▁comm
▁fra
▁ser
▁truth
ador
▁speak
01
IA
ante
▁Her
▁ask
▁head
▁power
▁sw
Y
ations
ela
▁app
▁esc
▁fool
EL
tern
▁Am
ally
bl
fl
ins
zen
▁everything
▁sup
▁why
ific
▁among
▁att
▁inst
ale
quer
▁wor
ack
ivo
ree
▁happen
▁spirit
OR
ction
for
hat
ht
oun
▁cho
▁gl
▁old
aca
bre
iar
imento
ras
self
▁Peter
▁Te
▁fil
▁light
RO
eth
▁19.
▁ang
▁fal
▁sal
You
na
▁ple
▁reg
▁sur
AD
sel
▁bring
af
▁nós
▁vis
▁won
▁Proverbs
▁place
▁ref
9.
ised
▁20.
▁Pro
▁anyone
▁everyone
▁home
▁teach
▁three
▁very
ido
▁um
▁wat
ds
hed
ino
read
▁bu
▁end
▁por
ua
▁na
1.
TO
▁*
▁ass
▁cur
▁destroy
0.
▁Car
▁Father
▁himself
▁others
▁show
▁took
hn
▁9
▁ear
000
ime
sy
▁Let
▁gave
▁la
ize
ps
▁Man
▁dec
▁dire
▁mas
▁sem
▁tem
▁water
ely
ked
ple
▁kn
▁mother
IL
rer
▁John
▁Sign
▁che
▁ins
ã
▁At
▁Un
▁god
▁gu
▁think
aut
ob
à
▁21.
▁hear
▁together
este
form
▁fall
▁given
▁ir
▁liv
▁mouth
▁resp
▁test
att
ben
min
pre
är
▁bre
▁plan
ique
pr
za
▁There
▁dia
▁wisdom
ph
udar
ude
▁Temple
▁ban
EN
ace
ÃO
▁cha
▁face
▁new
▁command
ders
ient
▁GLOSSÁRIO
▁brothers
▁honor
▁int
▁mor
ather
ista
son
ör
▁18
▁tw
▁until
ever
itar
ês
ô
ür
▁cle
▁keep
▁wife
2.
inar
ink
iver
lic
nen
ologia
ters
▁death
▁gre
▁listen
▁night
▁off
▁sins
ait
iana
ja
left
ola
oud
▁Th
K
ning
rie
ço
▁anim
▁dem
▁rest
▁walk
agem
ame
day
fa
right
▁Fra
▁Sp
▁die
▁ge
▁jo
▁need
▁sil
arn
land
vers
▁eu
▁exp
▁find
▁poor
▁saying
fen
ken
uss
▁Ol
▁another
▁friend
▁its
▁nothing
▁send
▁strong
ba
▁Is
▁lead
TE
des
ood
ove
▁glory
▁ob
ember
mp
ute
▁12
▁22.
▁Con
▁Ze
▁cro
X
Z
ged
less
oup
ried
▁Jews
▁desc
▁far
▁prom
▁sc
▁ste
ita
ough
ule
▁10
▁believe
▁done
▁fin
▁meet
▁open
3.
ement
igo
ull
▁began
▁call
▁sat
He
com
oura
pect
▁Abraham
▁Bo
▁brought
▁ou
▁seven
oso
▁Don
▁cir
▁dif
▁eyes
▁money
▁too
▁while
igh
ior
ought
ulo
urn
▁Phil
▁fo
▁food
▁found
▁high
gua
ions
ismo
▁div
▁enc
▁message
▁vo
▁word
dos
iet
ungs
▁Est
▁Fe
▁body
▁care
▁prophe
▁read
▁someone
▁upon
ON
bel
ison
ites
ta
ência
▁23.
▁ce
▁living
▁offer
▁pal
aid
ane
con
imo
vor
ário
ér
▁Br
▁av
▁crowd
▁priests
RA
als
dução
esch
mar
ée
▁bad
▁ma
▁near
▁without
asse
bs
cht
ject
rio
vore
▁around
▁giv
▁kind
▁sim
▁sm
▁sy
▁talk
ared
aus
bro
je
leep
ular
xo
Ç
▁answer
▁family
▁hands
▁holy
▁nor
bar
entro
ote
ying
▁13
▁always
▁bir
▁does
▁trou
▁y
ago
air
ité
▁Bar
▁Ne
▁drink
▁four
▁much
▁nome
▁pat
▁sor
▁thee
▁ve
aled
lt
mel
▁24.
▁Fl
▁arri
▁fire
▁obey
MD
amb
ents
var
É
▁bet
▁clo
▁har
▁inv
▁sl
▁stay
ash
ham
ince
ler
▁Ge
▁Holy
▁Now
▁auf
▁crow
▁enem
▁joy
▁sit
VC
VF
ated
ião
uc
▁dist
▁fac
▁kill
▁mat
▁mer
▁sub
104
11
ible
ille
ivers
▁Par
▁bless
▁worship
ager
ave
ley
own
reat
▁11
▁25.
▁enter
▁min
▁mon
▁spe
103
106
109
50
cy
gel
gue
icar
nS
ruction
uz
▁14
▁Do
▁On
▁arm
▁hard
▁says
:3
INA
elle
inc
▁Com
▁His
▁Sam
▁child
▁cr
▁fut
▁little
▁peace
▁well
108
2007
bra
ingu
iter
ized
ição
rom
▁believers
▁cause
▁hor
▁vocês
4.
PO
ray
Á
▁17
▁Er
▁ré
▁soul
107
cest
olo
uito
wer
▁16
▁angel
▁under
now
ula
▁Sil
▁Sinal
▁char
▁rel
▁town
amp
hren
ila
uel
uer
xt
▁Lo
▁Mo
▁What
▁brother
▁may
▁sla
▁wrong
14
EI
iva
ks
oke
ros
▁Daniel
▁My
▁belong
▁cour
▁full
▁id
▁lar
▁sec
▁soon
▁wit
▁writ
ando
ij
ips
ividade
med
pa
▁bapt
▁bur
▁church
▁imp
▁sho
▁swe
▁wom
ete
iat
jet
llen
▁26.
▁dev
▁prof
▁tak
▁true
TA
bras
cept
ished
ton
▁Moses
▁corre
▁dar
▁express
▁ke
▁pra
▁still
gr
thy
zer
ôn
▁All
▁Kingdom
▁Ma
▁Sant
▁fear
▁later
▁nam
▁next
▁sacr
▁young
cess
dade
hose
ition
ump
▁Maria
▁pesso
But
dom
ict
imagem
ory
q
át
▁27.
▁En
▁Pe
▁finish
▁pare
▁pres
▁seed
▁such
▁suffer
ander
aven
cal
rol
selves
uar
ín
▁Gal
▁adv
▁aut
▁both
▁feet
▁forg
▁learn
▁preach
▁pun
▁sisters
▁ten
▁trans
MA
cial
ith
ther
▁0
▁15
▁David
▁comes
▁tri
5.
ches
cle
ified
ling
ush
▁Mess
▁belie
▁died
▁gener
▁morning
▁plant
amento
laim
▁28.
▁better
▁count
▁met
▁real
▁shout
▁though
head
ience
isar
lly
upo
uro
▁That
▁coming
▁dark
▁didn
▁dra
▁ev
▁gold
▁hom
▁rich
6.
dem
gy
ief
ional
sen
vern
▁20
▁along
▁dan
▁offic
▁opp
▁return
▁sick
▁wine
IC
ives
ledge
ountain
▁action
▁appe
▁bread
▁fre
▁receive
▁stop
▁throw
▁wind
abb
aul
bal
hão
imon
nW
▁King
▁Mor
▁cannot
▁desp
▁going
▁guard
▁lives
▁might
▁relig
▁returned
▁sons
▁sun
fore
urt
▁AS
▁human
▁prov
▁thir
▁voice
▁wall
▁whole
7.
dle
inal
ém
▁One
▁Phar
▁accept
▁nat
▁wh
▁yet
ined
▁apost
▁being
▁cal
▁sk
8.
esso
illed
the
xto
zar
▁Scriptures
▁authority
▁comple
▁forever
▁hum
▁judgment
▁disc
▁ed
▁hon
▁husband
▁leave
▁sou
▁themselves
▁Jewish
▁fam
▁fell
▁fore
▁fruit
▁jud
aby
▁After
▁dear
▁ever
▁filled
▁gone
▁last
▁mercy
▁poss
▁pur
*
+
side
▁daugh
▁doing
▁fiel
▁gat
▁import
▁trust
fo
phe
▁Good
▁afr
▁clot
▁means
▁praise
▁rece
aug
▁contin
▁mean
▁thr
What
olog
vest
▁ey
▁hope
▁porque
▁pri
▁ta
Q
Th
ines
▁amar
▁blood
▁bow
▁thing
rength
▁Libras
▁angels
▁beca
▁continue
▁também
▁teacher
ived
ount
very
▁leaders
▁priest
hold
llow
▁etern
▁seen
And
ento
Ó
▁cat
▁ho
get
ned
▁News
▁aw
▁born
▁tree
▁whom
riting
stead
▁Your
▁ba
▁grace
▁prophets
=
angu
▁Gentiles
▁since
@
anguage
erson
way
▁Ap
▁Judah
▁dr
▁rul
ving
come
▁happ
▁discip
▁hearts
▁use
pen
▁hath
▁voc
eter
ily
ld
uit
▁written
.<
▁dest
If
inais
õ
▁Jud
▁lea
ife
ilho
irst
ên
other
▁ret
sh
▁pla
▁sis
▁surdo
ures
▁próprio
ibras
▁Dan
▁bod
▁list
stand
▁hel
▁serv
cr
ople
’
▁gen
î
Ü
acher
lood
Í
▁Tem
ship
uth
ower
▁letras
▁bel
alk
Ê
wn
û
▁chur
▁Cha
▁mess
oney
pter
▁Jer
▁Jes
óp
▁mou
▁wis
ós
▁obe
hil
ould
Â
▁Jew
augh
irit
not
▁hop
icked
2)
cri
verbs
iles
oses
́
▁Gent
hrist
ews
oug
Ä
▁ans
▁judg
fter
ï
band
Ã
Ö
Ú
▁suf
▁Dav
&
ambém
gether
oly
til
Ô
▁fri
ORD
RIO
^
ighte
ways
|
À
ÁRIO
ù
▁Abra
▁author
ighteous
LOS
cript
ë
“
▁Script
­
gth
Õ
ittle
roy
€
rael
°
”
▁repl
󽠐
[
`
alem
rong
̈
▁próp
%
1)
usband
~
»
ဂ
ပ
မ
လ
ါ
ာ
ၤ
▁GLOSS
󽠠
#
usalem
wth
«
È
က
—
▁morn
☻
󽠃
󽢷
󽻵
󽻼
󽼒
$
Î
ñ
ý
–
■
☺
♣
♥
￼
󽠒
󽠓
󽠡
󽠤
󽠦
󽠪
󽡼
󽤵
󽦡
󽨗
󽪸
󽻜
󽻠
󽻣
󽻭
󽻮
󽻶
󽼀
󽼃
󽼈
󽼏
󽼝
󽼡
