<unk>
<pad>
<s>
</s>
,
▁the
.
▁and
▁of
▁to
▁verse
▁you
s
▁he
▁in
▁a
▁i
ed
▁for
n
▁will
ing
-
▁that
▁"
▁is
'
▁god
▁they
▁his
▁but
▁be
t
▁with
y
▁was
▁who
▁not
▁him
▁me
▁your
▁it
er
a
▁are
▁all
▁have
▁as
▁from
▁them
▁lord
▁my
▁we
▁people
▁so
▁jesus
▁this
i
\
m
:
e
▁on
p
▁then
▁their
ly
al
▁when
b
."
▁f
▁b
▁m
▁said
or
es
?
;
▁do
an
c
▁by
u
g
o
ar
▁one
▁c
on
▁p
▁if
▁what
▁man
l
.\
in
h
!
▁were
▁d
le
at
▁s
▁had
▁at
d
it
▁us
▁st
▁there
as
th
▁has
f
▁up
▁no
▁l
▁out
▁she
▁her
▁t
en
w
br
is
▁son
▁or
▁pr
▁g
6
▁know
r
▁our
ers
se
▁n
]
ch
▁[
et
us
ent
▁can
▁go
▁am
v
om
▁those
▁an
st
▁good
▁christ
▁about
▁come
>\
re
▁4
▁--
▁because
▁re
il
▁give
ad
ion
ri
▁now
id
▁don
▁e
▁into
▁king
▁like
ll
▁sh
▁father
▁day
est
▁j
)
▁say
▁se
▁h
ate
▁even
ce
eth
ic
▁spirit
ct
▁o
▁(
▁3
▁things
he
▁sin
k
2
ve
▁other
▁right
▁over
ow
▁v
▁how
ver
▁person
ation
am
▁love
▁these
!"
9
▁\
▁let
▁heaven
▁time
1
op
▁see
ah
ab
ol
▁w
▁way
?"
▁shall
▁law
ter
0
and
▁life
el
▁'
are
▁earth
▁came
▁name
▁down
▁before
▁great
im
ra
ot
ro
▁been
ant
ine
nd
:1
▁th
▁work
ur
ive
▁own
▁every
▁also
8
the
▁many
▁went
▁after
7
▁must
▁un
4
▁more
▁ha
ir
z
um
▁unto
ain
xb
▁sa
5
ness
▁tell
x
▁hand
▁should
▁ex
▁some
▁r
▁away
▁same
▁ch
,"
▁5
▁again
3
▁just
ut
▁holy
our
▁world
ul
▁only
ge
all
▁which
▁lo
ke
ous
▁2.
ful
ry
ck
▁pro
▁told
▁would
▁make
<
▁back
▁evil
▁heart
▁through
be
if
▁house
▁never
▁where
▁two
▁de
▁sp
ap
▁made
"
ose
ist
▁than
▁eat
sed
you
ide
▁3.
▁children
▁israel
▁4.
▁le
▁men
ort
▁sent
▁thou
ia
od
▁5.
▁live
▁help
▁left
li
▁6.
▁did
▁saw
▁here
▁8.
▁ab
ast
▁7.
▁10.
▁pre
▁9.
▁faith
▁follow
▁
▁11.
ac
ard
ings
▁per
▁ro
ves
▁want
ance
ay
▁asked
▁first
▁take
ill
▁against
:2
un
▁k
▁12.
▁called
▁disciples
▁sc
▁cl
▁dis
▁sign
ty
ath
ence
▁pl
▁13.
▁co
▁replied
ity
▁chapter
▁14.
▁2
ue
▁wicked
▁heard
▁land
▁why
ish
ci
ice
▁rep
▁anyone
▁con
▁city
▁dead
▁li
▁mar
em
▁could
▁fa
▁look
iah
ure
ust
ig
▁power
ars
▁thy
qu
▁15.
▁each
▁get
▁old
.'
▁gave
pt
ved
ag
▁any
▁everything
▁hear
▁others
de
▁16.
▁exp
▁wise
nif
▁command
▁put
▁truth
ered
ment
ud
▁everyone
▁given
▁bring
▁jerusalem
up
ake
ight
▁paul
▁years
ect
right
▁1
▁become
▁show
▁woman
▁among
ore
▁days
nt
▁place
▁words
▁17.
▁head
▁light
ses
ss
▁pray
ared
▁think
▁three
ated
ise
▁ask
ite
▁keep
no
ru
▁18.
▁bo
▁kingdom
▁may
▁understand
▁very
ak
sh
la
▁high
▁peter
age
ph
▁himself
▁walk
▁its
ied
ile
▁temple
▁listen
▁te
▁glory
▁new
ld
▁home
▁honor
▁long
▁off
ai
▁death
lo
▁abraham
▁agent
▁mother
▁6
▁believe
▁ri
ase
so
▁took
orn
▁gra
▁turn
▁wife
ie
ns
▁19.
▁brothers
▁fl
▁sins
ried
ving
ven
▁need
▁upon
▁water
▁while
to
▁ye
ult
▁body
▁qu
man
▁comp
▁john
▁send
ble
of
▁another
▁ear
▁find
but
led
less
▁does
▁end
▁ra
▁saying
▁20.
▁word
▁app
▁obey
▁tra
ach
ally
▁fall
▁nothing
▁tre
▁wor
ass
▁night
▁together
ne
▁ad
▁wisdom
one
▁done
▁thee
ces
▁19
▁kind
▁living
▁righteous
.<
hes
ou
red
▁call
▁meet
▁message
▁speak
▁money
ess
▁proverbs
▁eyes
▁part
▁po
▁res
▁until
▁21.
▁di
▁seven
ies
ip
▁much
j
les
▁cause
▁fire
▁well
ail
mb
ok
▁brought
▁fe
▁mouth
▁news
▁peace
▁says
▁without
left
▁someone
▁die
▁jews
ors
▁found
▁z
ep
▁ne
▁open
▁set
az
ber
▁wi
▁22.
▁7
▁jo
▁la
▁rest
ches
ites
ress
▁al
▁food
▁hands
▁ins
▁stay
▁ar
▁poor
▁always
▁dec
▁such
▁too
te
ts
▁cre
▁talk
▁drink
▁worship
ere
▁care
▁servant
▁stand
▁strong
ons
▁gold
▁8
▁began
▁crowd
▁priests
▁u
art
ire
▁comm
▁face
▁joy
▁yet
ans
we
▁dear
▁gl
▁little
ian
ind
▁mat
able
ary
oth
▁23.
▁brother
▁destroy
▁test
ced
ound
▁acc
▁bl
▁sl
▁teach
end
fe
ual
▁bu
▁nor
▁angel
▁around
▁bapt
▁kill
▁next
▁ter
▁yes
▁24.
▁believers
▁return
os
▁fear
▁under
her
ished
pe
▁mean
▁moses
▁bad
▁david
▁mo
▁spe
ash
me
▁belong
▁child
▁church
▁forg
▁full
▁remember
▁soon
▁both
▁coming
▁true
▁wrong
▁better
▁gre
▁happen
▁thank
▁though
ght
ick
▁family
▁fr
▁offer
▁praise
▁receive
▁since
als
ions
▁12
▁belie
▁hard
▁18
▁bless
▁har
▁later
▁sisters
>
co
hed
ized
▁accept
▁being
▁cr
▁gu
▁last
▁near
▁25.
▁sm
▁suffer
▁swe
▁didn
▁char
▁still
▁throw
▁wall
bb
tle
▁att
▁comes
▁far
▁grace
▁sat
▁seed
▁en
▁wit
aught
ize
▁26.
▁ever
▁young
for
ged
▁cannot
▁conf
▁feet
▁finish
▁fool
▁four
▁shout
▁soul
▁thing
ner
ning
ory
self
ters
▁14
▁authority
▁mak
▁sit
what
▁action
▁bread
▁forever
▁sons
come
cy
▁book
▁hath
▁themselves
▁wind
:3
▁des
▁doing
▁scriptures
▁sw
▁-
▁10
▁ent
▁gentiles
▁learn
▁ord
▁sun
▁voice
ible
ned
ove
sp
▁27.
▁9
▁appe
▁fin
▁judgment
▁lives
▁ple
▁preach
▁pri
▁priest
▁rem
▁sea
▁town
▁wine
ang
ave
pp
thy
▁16
▁blood
▁cat
▁che
▁field
▁going
▁sam
▁sil
▁tri
▁whole
▁whom
/
ord
▁died
▁fruit
▁gr
▁husband
▁judah
▁rich
▁trust
air
now
row
sign
▁17
▁car
▁leave
▁rul
▁stop
ather
day
▁11
▁13
▁human
▁supp
▁sur
▁sure
ame
ants
▁dem
▁try
▁use
ates
vent
▁fore
▁please
▁ps
ale
ames
vi
▁arm
▁bow
▁enter
▁gone
▁returned
▁sick
lish
po
▁born
▁bro
▁cons
▁hearts
▁instead
▁jud
▁means
▁opp
▁plan
▁seen
▁su
▁tree
▁tw
nder
▁inter
▁language
▁prophets
▁won
00
au
cked
ever
▁continue
▁gener
▁ob
▁watch
▁women
iz
ush
▁dist
▁filled
▁real
▁reg
▁vi
ace
ations
bs
ign
ious
vel
▁along
▁angels
▁aw
▁beg
▁five
▁hope
▁je
▁jewish
▁letter
▁ph
▁prophet
▁ru
▁sleep
▁understanding
ange
ction
my
▁dece
▁hon
▁messiah
ote
▁answer
▁eternal
▁mercy
▁morning
▁pay
▁writing
▁written
cl
ome
▁28.
▁afraid
▁ag
▁build
▁hur
▁lead
▁pass
▁remain
atter
ins
ute
▁15
▁adv
▁faithful
▁harvest
▁knowledge
▁leaders
▁standing
cess
go
ject
nthe
▁became
▁grow
▁inst
▁most
▁pharisees
▁prep
▁prov
▁religious
▁str
▁war
7.
aiah
alm
edi
ices
ith
▁already
▁deli
▁eye
▁ground
▁ho
▁imm
▁pla
▁ser
▁silver
▁sing
▁stri
▁tru
▁wild
ined
ray
way
▁<
▁cur
▁dep
▁gate
▁guard
▁servants
▁trans
▁white
▁year
8.
og
ying
▁29.
▁desire
▁gift
▁govern
▁requ
amp
ens
land
ward
zar
▁clean
▁col
▁deep
▁group
▁heal
▁mind
▁save
▁taken
ited
let
nand
ount
ron
that
▁free
▁imp
▁par
▁thought
▁turned
iss
lain
▁bur
▁door
▁fell
▁judge
▁mes
▁mirac
▁once
▁pur
▁sk
▁weak
▁wo
cial
ines
ments
ows
ues
ull
ze
▁anger
▁celebr
▁deaf
▁else
▁fish
▁hold
▁lived
▁ma
▁write
ched
▁30.
▁31.
▁act
▁break
▁covenant
▁punish
▁raised
▁read
▁rel
,<
ert
ho
nts
why
▁anything
▁happened
▁teaching
ached
cious
ince
ten
▁beast
▁foolish
▁friend
▁hor
▁looked
▁nations
▁share
ng
ple
this
▁birth
▁bre
▁encoura
▁healed
▁lot
▁none
▁second
▁stood
▁ten
▁wr
▁yourselves
lic
son
▁alone
▁cont
▁egypt
▁lips
▁run
▁serve
▁sy
▁trouble
▁whe
▁yourself
ired
ob
ps
wh
▁cut
▁during
▁question
▁sn
▁teachers
▁vis
▁ways
201
its
nhe
vers
▁amaz
▁apostles
▁baby
▁eli
▁friends
▁large
▁min
▁salvation
▁thine
▁tit
0.
ek
▁21
▁ass
▁ba
▁future
▁greater
▁hate
▁mountain
▁past
▁self
▁wa
ages
don
ier
out
who
▁22
▁able
▁ancestors
▁bear
▁boast
▁burn
▁close
▁cor
▁enemies
▁forth
▁lu
▁nation
▁promise
▁shame
▁step
▁stone
▁therefore
▁tong
▁tr
,000
ased
do
live
sel
vid
▁32.
▁arrived
▁bar
▁clothes
▁correct
▁descend
▁destroyed
▁fast
▁gives
▁killed
▁leading
▁pas
▁pos
▁shalt
▁something
cus
get
ling
ont
ree
rew
▁add
▁between
▁fo
▁lay
▁respect
▁reveal
▁reward
▁road
▁saved
▁sla
eds
gg
ians
nes
▁blessed
▁boat
▁cast
▁express
▁false
▁kings
▁phil
▁prom
▁throne
af
ature
irm
per
ther
there
uch
ued
▁24
▁bodies
▁br
▁certain
▁different
▁enough
▁estab
▁hum
▁mer
▁ready
▁rec
▁six
▁sold
▁wel
9.
asure
ised
ities
side
then
▁coun
▁den
▁dra
▁godly
▁instruction
▁mary
▁named
▁sabbath
▁sorrow
claim
ich
oun
ting
▁33.
▁asl
▁coll
▁cover
▁cry
▁rom
▁spread
▁strength
▁third
▁twelve
▁wonderful
▁ze
!<
1.
2.
cer
gn
ical
other
ressed
ror
▁angry
▁blind
▁daniel
▁discip
▁idol
▁ign
▁inv
▁path
▁plant
▁prison
▁prop
ade
by
look
▁23
▁cross
▁hundred
▁kept
▁neighb
▁proud
▁received
▁righteousness
▁suddenly
▁sword
▁whose
▁y
aring
den
itt
nk
val
when
zy
▁barn
▁crow
▁desp
▁greet
▁hell
▁ones
▁room
▁rule
▁secret
▁small
▁times
▁used
▁wanted
▁whatever
,'
:\
ici
ointed
own
▁34.
▁allow
▁animals
▁clear
▁contin
▁darkness
▁demand
▁elders
▁might
▁nine
▁pati
▁queen
▁really
▁rebu
ank
ason
ax
round
where
▁ahead
▁grain
▁im
▁inform
▁knew
▁led
▁mighty
▁philist
▁prot
▁pub
▁resc
▁sheep
▁synagog
ong
ship
ub
▁above
▁bed
▁beth
▁cal
▁count
▁decl
▁eng
▁favor
▁fort
▁front
▁herod
▁looking
▁presence
▁reign
▁satisf
▁ship
▁snow
▁stra
▁stu
com
ense
iness
ives
lt
ost
▁armies
▁attention
▁cho
▁chosen
▁dri
▁escap
▁forward
▁heavens
▁pilate
▁refu
▁refuse
▁repent
▁week
ately
der
nw
ren
ump
use
well
▁25
▁adam
▁circum
▁cra
▁dev
▁hair
▁hat
▁hung
▁important
▁month
▁pe
▁rain
▁simon
▁spoke
▁today
▁warn
=
enty
god
hem
ib
ock
ower
par
reed
sec
yes
▁20
▁35.
▁bird
▁bri
▁condem
▁daughter
▁def
▁em
▁galilee
▁huh
▁offic
▁perfect
▁reject
▁rise
▁river
▁side
how
mon
pped
rif
▁art
▁confid
▁eight
▁fight
▁giving
▁hid
▁jonah
▁leader
▁master
▁med
▁sacrif
▁table
▁tim
ility
ition
ken
lf
lly
lord
orrow
▁behind
▁bit
▁bus
▁ca
▁hast
▁neither
▁point
▁produ
▁stupid
▁sub
▁telling
3.
ack
ane
clock
ets
▁26
▁abram
▁ast
▁bene
▁bet
▁carry
▁country
▁disappe
▁enemy
▁entire
▁feel
▁fellow
▁fest
▁form
▁gather
▁gri
▁happy
▁lift
▁move
▁mur
▁pa
▁pure
▁sar
▁slave
▁speaking
▁throughout
anger
any
ask
down
irl
ti
▁36.
▁cloth
▁cloud
▁control
▁emp
▁esther
▁farm
▁fulf
▁ind
▁mock
▁mordecai
▁offici
▁pare
▁pers
▁sacrifice
▁sim
▁waters
ample
fer
fit
fully
itting
jah
lesh
ners
orious
rise
your
▁200
▁27
▁ac
▁ago
▁arg
▁beginning
▁bran
▁com
▁crowds
▁dest
▁devil
▁ed
▁enjoy
▁es
▁inherit
▁summ
▁visit
▁wait
--
ark
aves
cil
ently
ff
ft
hold
ones
ots
rection
▁answ
▁beautiful
▁complete
▁course
▁crucif
▁daughters
▁dru
▁hill
▁lamb
▁longer
▁pick
▁rejoice
▁respons
▁rock
▁seek
▁suc
▁toward
▁within
bles
cle
cre
eri
ief
rible
▁accord
▁across
▁alt
▁americ
▁arrest
▁begat
▁behold
▁capt
▁corn
▁dream
▁eager
▁except
▁feed
▁foot
▁gathe
▁gent
▁hy
▁lev
▁mot
▁oh
▁prayer
▁prese
▁ran
▁search
▁signs
▁signwriting
▁start
▁touch
▁win
ause
form
not
ures
▁dark
▁fam
▁sal
5.
ink
lie
mp
▁jew
ix
lood
res
▁gif
▁sis
01
laim
ruction
▁dr
▁rece
4.
irst
▁af
▁ref
▁tak
6.
aster
head
urn
▁bel
▁el
oke
ood
outh
▁anim
▁hu
ild
jo
uth
▁wh
ham
hing
&
▁cour
alt
iting
▁arri
▁judg
▁pra
lock
ough
▁teacher
acher
rist
ws
▁chur
ield
read
▁jes
▁list
ani
een
eter
oud
▁gen
▁hop
▁langu
▁mount
▁serv
▁tou
▁ver
illed
ison
ither
ream
xt
▁trou
ird
selves
stand
▁beaut
▁id
▁pat
tern
▁prophe
arch
▁chose
aven
int
▁apost
▁kne
▁wat
000
gh
ily
oses
wr
▁mir
▁sac
▁streng
cif
fore
leep
vor
▁ce
▁pun
▁temp
cip
llow
oney
▁beh
▁clot
ater
cept
ene
ople
whe
▁begin
▁circ
▁jer
▁ke
▁som
▁wonder
ived
amed
oint
ram
vest
▁ang
▁gi
irc
▁cond
ouse
▁ret
mm
oura
wn
▁ancest
▁gal
▁mon
▁script
▁whi
ould
▁author
▁cle
▁wis
*
cap
rou
▁bec
▁bles
▁cru
▁grou
app
iles
rect
rough
verbs
▁apo
▁reb
▁unt
_
ager
alk
athe
ec
riend
▁op
bey
lp
▁bab
▁da
(
gy
igh
lete
uring
vil
▁eld
▁relig
arn
ention
gether
oice
▁lam
▁pil
hn
q
rol
▁est
▁phar
▁wom
ross
▁dif
▁quest
cend
ertain
raid
ung
writing
▁lar
▁pharise
▁sudden
ead
eous
fect
itten
nce
odu
oul
rest
ript
thing
ulf
▁disapp
▁mess
▁resp
▁secre
gel
iful
irit
ledge
lied
▁differ
▁ey
▁happ
aut
dom
ething
▁galile
angu
ember
full
rought
uit
▁jon
▁reve
coura
uture
ways
▁enjo
▁import
▁suf
cond
irth
rael
ready
rone
sw
agog
aniel
eric
ittle
joice
vation
▁coven
▁hus
▁inher
@
alse
dden
elve
isf
lig
raham
upid
ween
▁bod
▁chap
▁gover
▁morn
%
[
`
cest
gypt
ordecai
roy
ternal
