<unk>
<pad>
<s>
</s>
,
▁the
.
▁and
s
-
▁to
▁of
▁Verse
n
t
a
ed
▁you
o
▁a
ing
ar
er
▁in
m
y
▁I
c
en
f
es
i
p
l
d
b
e
al
▁he
g
u
or
v
▁will
▁S
r
▁c
▁m
'
w
▁p
▁for
h
k
▁"
▁b
z
▁that
▁be
an
▁M
in
▁is
at
▁P
▁s
▁B
▁f
re
▁C
it
▁God
as
is
on
le
_
el
x
▁A
▁his
▁l
▁d
▁with
▁rwth
▁G
ra
ro
▁was
▁E
▁F
▁they
▁L
j
▁h
A
▁who
▁T
ur
se
te
▁him
▁not
▁g
il
▁de
▁your
▁me
st
ia
ir
th
▁t
q
▁H
▁are
▁D
▁have
ic
▁all
▁
▁R
os
ol
us
ri
▁w
é
▁from
▁them
▁And
ch
▁it
▁N
ent
▁K
am
et
▁Jesus
▁do
2
:
▁as
▁re
om
▁on
▁J
▁people
▁we
1
O
▁2
3
▁W
\
▁my
▁st
ut
I
ig
ter
▁but
▁v
5
)
id
▁He
ly
ie
▁n
ão
?
ac
un
▁3
▁V
▁The
E
▁O
ot
▁this
ab
em
he
im
."
nd
▁their
S
4
ul
T
um
ver
ad
ll
est
ant
au
▁e
ion
L
6
▁se
ag
ou
and
ge
▁said
!
▁But
ve
ho
;
ce
▁(
▁by
7
ers
9
D
▁man
ate
ation
▁so
8
.\
▁at
▁were
ah
á
ap
ung
▁ab
to
qu
▁o
0
▁one
R
▁r
U
▁an
ast
▁am
▁had
io
C
de
ü
▁no
ne
▁what
▁or
▁us
▁Then
ä
▁LORD
ow
oc
▁out
ine
ain
▁Z
od
▁when
▁j
M
ct
▁So
▁if
í
▁For
▁k
200
P
me
▁know
ist
if
▁Lord
▁has
▁up
pe
ado
ke
ay
▁go
ry
▁al
av
▁U
▁Y
co
▁there
are
ud
be
▁her
▁4
br
▁qu
ai
one
ind
iz
op
]
▁ro
B
▁[
▁Christ
▁pro
ive
▁Pr
ure
N
▁ar
▁ver
▁our
▁cl
▁en
iv
▁un
ak
▁co
our
▁can
ip
▁ex
▁sh
ise
ort
ment
ide
ord
▁--
che
ira
ess
ire
▁con
ma
▁about
▁sin
ck
▁des
▁1
▁ch
▁come
▁those
ard
ill
▁le
ens
H
▁she
so
▁They
▁because
▁pl
her
ran
ish
▁into
ass
res
▁king
ru
G
ber
ies
ca
all
ica
▁give
ach
▁Q
ness
per
▁like
W
▁good
▁day
pl
▁son
▁com
po
ous
▁You
▁su
sed
▁say
les
▁over
ha
hen
▁ra
▁way
ze
▁person
cl
ue
▁see
▁th
▁In
00
ina
und
▁right
art
pt
ful
▁5
▁gra
▁-
▁Mar
10
ó
▁X
▁bo
▁even
▁great
ign
ian
ont
▁other
!"
AR
ug
nder
ust
ente
ier
▁things
fe
ice
▁time
F
og
▁love
ath
ile
▁pre
▁res
?"
ts
ção
az
▁Be
▁fl
ep
ite
cer
ib
ss
▁When
mb
▁per
iah
▁fe
▁earth
▁let
▁'
har
ome
sch
▁been
▁shall
up
▁Sch
▁life
we
▁tra
ved
▁down
ação
▁An
V
▁don
▁now
eb
ight
▁than
ix
▁these
▁law
▁name
▁before
▁tell
iro
▁came
▁sp
▁then
▁mo
201
▁Al
▁SC
▁car
ble
▁must
▁pr
ff
gu
▁went
row
▁how
:1
▁own
ich
ren
led
▁faith
▁also
▁mar
ik
ose
>\
do
▁es
▁some
▁¶
ais
nt
ça
▁every
ings
ual
▁lo
▁St
▁men
mer
▁heaven
▁CM
▁through
fer
▁more
▁work
ase
▁Ar
▁want
▁ne
rit
ult
ö
▁many
ence
pp
▁ad
▁away
▁sent
,"
age
ang
ft
ub
ave
▁world
▁MEL
▁hand
▁look
ild
▁2.
▁Ab
▁same
ore
▁est
▁thou
▁3.
▁only
▁should
ico
▁bl
▁just
ten
▁Le
ê
▁4.
▁again
▁would
ner
▁Israel
▁told
ob
va
▁não
int
old
ven
▁heart
ame
ity
men
▁po
AN
ied
▁As
▁Re
▁rep
▁sa
▁We
▁ri
ci
▁any
▁saw
ok
▁5.
ER
mo
ph
▁evil
air
ty
▁made
▁Spirit
▁é
▁7.
▁back
ada
du
ere
▁6.
hr
ress
orn
▁understand
▁z
ß
▁ter
▁8.
▁make
▁against
(
ock
▁eat
ern
ick
▁dis
▁te
ance
ert
▁9.
▁ac
▁never
▁10.
▁da
chen
▁which
▁11.
▁did
▁live
gar
▁children
▁sch
▁sl
ien
▁two
▁unto
▁12.
ple
▁asked
▁em
▁esc
▁left
▁Son
iss
è
▁house
▁ap
▁long
ward
▁father
ial
▁sign
▁13.
la
sp
ç
▁Paul
▁disciples
▁If
ana
cia
able
here
▁where
ors
ake
▁14.
ars
▁Father
vo
▁This
idade
▁par
▁replied
▁tr
▁u
<
▁6
▁first
▁called
▁heard
▁It
gen
▁after
▁here
▁follow
▁Chapter
▁rem
▁turn
▁para
▁pe
▁De
af
▁Ad
ious
▁pray
The
fl
▁Lu
▁help
que
▁cont
:2
▁15.
▁prophe
▁ent
ans
ao
ura
ons
▁cor
▁wicked
(2)
▁She
▁power
▁land
ara
▁Se
▁Th
▁Ver
▁cho
ade
▁gave
▁command
▁each
▁gl
ds
hy
kt
out
▁ag
ong
▁take
.'
ria
▁beg
▁could
nde
red
▁Jerusalem
alt
aw
J
den
go
of
▁16.
uch
▁get
▁im
▁li
▁servant
▁No
▁acc
▁become
â
ô
▁comp
▁ye
OS
ú
(1)
ld
▁bu
▁dead
▁put
▁sinal
▁stand
bl
▁sc
ato
▁speak
iel
ima
ised
▁Deus
thing
▁conf
▁everything
▁woman
cul
ito
ux
▁wise
▁El
▁pessoa
▁thy
▁truth
AS
▁city
▁que
▁righteous
ger
▁set
ost
▁17.
▁given
▁ol
man
▁destroy
let
You
▁col
▁old
▁ob
▁19
▁years
ador
▁bring
▁everyone
▁fa
"
inho
ree
▁days
▁lead
▁tre
20
ations
eth
ieren
itt
▁among
▁anyone
▁words
ood
▁head
▁teach
▁ser
ally
gra
▁others
▁spirit
ater
jo
ng
ES
IS
da
vel
▁18.
▁ple
hed
▁sw
▁why
/
lich
rar
ried
▁light
▁place
RI
ared
nIf
read
▁dem
▁happen
▁pass
arm
ves
▁agent
▁hear
▁8
▁ask
ida
par
▁Is
▁Peter
▁ref
▁very
AL
ret
▁7
▁ele
▁end
ela
▁wor
isch
oss
▁br
att
▁himself
▁reg
sy
▁af
▁inter
Y
▁19.
▁think
ace
ste
▁Am
▁brothers
▁contin
▁took
ack
right
self
▁Her
▁inst
▁part
bo
car
ps
ias
tern
use
▁Me
▁new
ante
aus
na
▁Let
▁honor
▁show
rom
▁ang
IN
sel
▁Sign
▁death
▁glory
▁John
▁fool
▁its
▁three
▁vis
atch
cher
rer
▁er
▁home
aut
rag
▁Man
ove
▁mother
▁pres
ME
ale
ction
▁20.
▁upon
ked
ras
ters
▁Te
▁mas
▁sins
9.
ax
ely
icht
▁UF
ij
ins
▁There
▁god
▁pri
ning
▁At
quer
▁dec
▁ins
▁seven
▁Abraham
▁sal
▁wife
hes
▁bar
▁dé
ait
ift
▁el
▁holy
▁keep
▁nós
▁sur
▁tem
▁together
▁water
▁Temple
▁ass
▁believe
▁fall
▁obey
▁Holy
▁done
▁prom
ene
rir
▁another
▁ear
▁fil
▁listen
▁offer
▁saying
▁send
01
EL
IA
no
▁brought
▁message
▁rest
0.
▁21.
▁Ch
▁until
bs
▁bre
▁living
1.
form
▁anim
▁body
▁find
OR
abe
hl
ivo
lo
▁kind
▁says
▁test
ew
▁liv
▁night
▁off
arn
za
▁Jews
▁does
▁face
▁need
▁plan
▁wisdom
▁9
▁Es
▁che
▁gre
als
for
mp
reat
uf
▁die
▁por
▁wh
nen
▁att
▁fr
▁mouth
▁nothing
▁too
RO
cy
inha
sh
▁Don
▁Now
▁cle
▁thee
igh
ize
▁cro
▁dire
▁friend
▁ir
▁pare
▁spe
▁while
▁wo
000
less
rie
zen
▁Proverbs
▁Un
▁cou
▁tw
▁walk
ken
ora
▁Pro
▁found
▁gu
▁sil
▁someone
AD
ail
ather
day
vers
▁call
2.
ated
▁far
▁fire
▁meet
ino
pect
rist
son
uz
xt
▁*
▁eyes
▁fra
▁strong
▁without
aled
amp
ound
▁Car
▁high
▁much
ches
este
ks
urn
ã
▁22.
▁cur
▁ou
▁read
▁worship
TO
amb
ec
ember
ict
ions
tar
▁fo
bre
pre
udar
▁food
▁ve
IL
ash
▁Jo
▁Ol
▁money
▁sor
cou
ido
▁began
▁crowd
▁may
He
cht
gn
pr
▁care
▁poor
land
▁18
▁Ne
▁always
▁dia
▁dif
▁enter
▁eu
▁open
▁sem
▁ste
K
▁23.
▁bet
▁cause
▁giv
▁mor
ink
à
▁Phil
aven
oh
oy
rau
thy
▁answer
▁cas
▁div
▁fal
▁word
agem
aim
gy
inar
ject
ua
är
▁cir
▁int
▁joy
▁peace
▁tri
EN
aves
der
icar
ior
itar
je
▁bless
▁brother
▁cons
▁rel
ns
round
ute
▁gr
▁har
▁priests
▁sat
▁well
ane
ull
xo
▁Sp
▁around
▁little
3.
ght
iar
ique
ÃO
▁His
▁angel
▁writ
ause
ement
ista
my
▁bad
▁comm
▁drink
▁enem
▁hands
▁kill
▁ord
▁sm
▁trou
fen
ison
ites
ja
▁ban
▁fin
ele
ized
ron
ês
▁24.
▁Est
▁child
ient
inc
ince
ologia
ook
ote
▁10
▁family
▁nor
▁pal
▁stay
▁sy
▁talk
elle
ita
ço
▁Sam
▁bir
▁return
ben
esch
now
oso
rou
ule
▁Fl
▁GLOSSÁRIO
▁On
▁coming
com
ible
ür
▁12
▁That
▁av
▁sisters
▁true
asse
iana
left
▁My
▁arri
▁believers
▁belong
▁fac
▁fut
▁gold
▁hard
▁still
▁under
Z
ago
leep
ola
ough
ray
▁Moses
▁full
▁id
▁sit
▁y
atter
dom
iet
iver
rio
▁25.
▁four
▁shout
▁wrong
TE
ba
by
dade
gue
▁Do
▁accept
▁char
▁nome
But
ished
ruction
ump
▁Good
▁authority
▁belie
▁might
▁near
▁sho
▁vocês
min
ther
uh
▁13
▁What
bu
gl
▁All
▁Con
▁Kingdom
▁Ze
▁dev
▁preach
▁receive
▁seed
gua
rol
zz
▁being
▁crow
▁fear
▁sec
▁suffer
▁tak
▁um
ano
cu
nS
selves
▁King
▁bro
▁church
▁forg
▁ge
▁inv
▁pun
▁soon
▁though
▁young
con
entro
med
ros
ör
▁Daniel
▁David
▁both
▁pat
▁trans
4.
ager
ismo
pa
rig
ário
▁26.
▁ever
▁expl
▁mer
▁sacrif
▁soul
ON
ory
ungs
▁Sant
▁app
▁dist
▁jo
▁offic
▁sim
dução
imo
nc
py
uss
▁cri
▁lives
▁swe
▁wit
RA
aj
fore
imon
nda
ular
ulo
É
▁Bar
▁Ge
▁News
▁dark
▁didn
▁feet
▁grace
▁grou
▁nam
▁pra
▁such
▁town
▁wine
5.
apt
ates
ives
vore
ência
▁11
▁27.
▁better
▁comes
▁forever
▁going
▁whole
illed
mar
ée
▁Er
▁Jud
▁Scriptures
▁bec
▁finish
▁mon
Th
cept
ith
ité
ms
oca
▁14
▁One
▁bapt
▁next
▁real
▁throw
var
▁Par
▁along
▁fruit
▁min
cend
head
ubl
▁16
▁Br
▁Pl
▁count
▁cour
▁doing
▁human
▁ke
▁med
▁sons
▁ten
▁thir
▁voice
abb
fo
igo
ião
ler
ley
uc
▁apost
▁del
▁prov
▁sub
▁themselves
▁whom
▁wom
11
:3
amento
eln
imagem
ingu
▁daugh
▁died
▁imp
▁later
▁relig
109
MD
aul
ledge
sen
uar
ush
wer
▁17
▁AS
▁appe
▁judgment
aby
ants
ky
▁Gal
▁Gentiles
▁Sil
▁Wh
▁auf
▁means
▁poss
103
VF
cif
Ç
▁Judah
▁Mess
▁cannot
▁guard
▁last
▁yet
INA
VC
hold
ição
ream
vern
▁28.
▁action
▁bread
▁etern
▁express
▁hope
▁hor
▁lar
▁learn
▁rich
▁thing
106
108
cess
iter
▁Com
▁adv
▁fiel
▁stop
107
2007
What
ando
jet
ountain
▁15
▁dear
▁opp
▁praise
▁prof
▁trust
▁vo
49
ape
ips
ivers
raid
stead
▁After
▁Fe
▁hom
ete
iva
ned
tend
▁Sh
▁blood
▁gener
▁returned
▁wall
105
PO
elo
ention
ged
gr
ling
lly
mm
nW
Á
▁Ps
▁Qu
▁angels
▁cond
▁fell
▁filled
▁leaders
▁nat
▁ré
▁sick
▁wind
48
7.
cha
dos
ris
ula
▁Ex
▁Jewish
▁Mo
▁Sinal
▁born
▁corre
▁ev
▁mean
▁rece
▁seen
▁since
6.
EI
aught
bra
ek
olo
own
phe
vest
zer
▁bow
▁cam
▁hum
▁teacher
▁tree
8.
ical
ila
ines
ition
mel
ny
rupo
ton
uito
wh
▁Ant
▁Maria
▁dar
▁hath
▁hearts
▁leave
▁met
▁cap
▁clot
▁husband
▁inc
▁perfe
14
cle
cond
dle
ividade
uri
vimento
▁ancest
▁hon
▁mercy
▁priest
12
aid
reng
riting
▁morning
▁pessoas
bras
xto
▁20
▁porque
▁sun
And
cial
isar
ount
the
uel
▁Cl
▁cal
▁ed
▁fore
▁resp
▁written
entar
ín
▁gone
MA
aber
anguage
olog
▁0
▁ant
▁exp
▁sou
▁também
ém
eter
very
▁import
▁ey
▁fam
▁use
.<
IC
inal
▁Ap
▁jud
▁tim
▁voc
▁amar
▁disc
esso
llow
*
eral
+
erson
▁na
If
wn
▁Libras
▁discip
angu
anh
bal
hat
Q
get
rif
▁hap
ento
pen
▁Abra
X
ily
▁dest
Ó
gh
▁bod
@
ship
▁bel
irst
acher
cri
▁próprio
▁dr
other
ures
ohn
imento
▁Ph
▁ret
▁sis
stand
õ
▁gen
▁mess
ople
way
ower
▁list
▁serv
ilho
▁hel
augh
▁surdo
ên
’
▁au
▁sac
ham
▁<
ibras
ife
post
▁Dan
▁Jer
▁Tem
Ü
î
Í
▁Af
▁Sinais
▁judg
▁letras
▁chur
cest
ould
▁New
alk
▁tran
▁Jes
Ê
>
oney
û
▁Jew
óp
ouse
▁wis
ós
oses
▁hop
▁mou
not
irit
▁Gent
=
icked
Â
bey
2)
iles
rough
verbs
▁ans
riend
́
inais
&
til
Ä
ï
Ã
Ö
▁Dav
▁Script
▁repl
band
oly
Ú
▁Chap
▁author
ambém
ORD
gether
▁tru
Ô
“
RIO
^
cript
|
À
▁pesso
ù
LOS
ffer
ÁRIO
ë
teous
ways
­
”
roy
ruit
alem
ittle
Õ
€
▁GLOSS
rael
rought
°
1)
[
`
rong
̈
▁próp
%
ghteous
thor
usband
~
»
ဂ
ပ
မ
လ
ါ
ာ
ၤ
#
usalem
wth
«
È
က
—
▁morn
☻
$
Î
ñ
ý
–
■
☺
♣
♥
￼
