{
    "<pad>": 0,
    "<unk>": 1,
    "<s>": 2,
    "</s>": 3,
    "▁": 4,
    "-": 5,
    ",": 6,
    ".": 7,
    "▁the": 8,
    "a": 9,
    "en": 10,
    "s": 11,
    "ar": 12,
    "o": 13,
    "i": 14,
    "er": 15,
    "es": 16,
    "t": 17,
    "y": 18,
    "▁Verse": 19,
    "▁and": 20,
    "▁of": 21,
    "m": 22,
    "ed": 23,
    "▁l": 24,
    "n": 25,
    "▁to": 26,
    "▁b": 27,
    "▁p": 28,
    "▁a": 29,
    "in": 30,
    "▁s": 31,
    "al": 32,
    "l": 33,
    "▁de": 34,
    "u": 35,
    "▁m": 36,
    "▁S": 37,
    "▁f": 38,
    "an": 39,
    "or": 40,
    "ing": 41,
    "p": 42,
    "▁c": 43,
    "▁M": 44,
    "b": 45,
    "c": 46,
    "on": 47,
    "e": 48,
    "z": 49,
    "f": 50,
    "at": 51,
    "re": 52,
    "k": 53,
    "d": 54,
    "it": 55,
    "▁C": 56,
    "▁P": 57,
    "▁t": 58,
    "g": 59,
    "as": 60,
    "▁B": 61,
    "v": 62,
    "el": 63,
    "▁g": 64,
    "▁v": 65,
    "▁n": 66,
    "▁h": 67,
    "r": 68,
    "il": 69,
    "▁d": 70,
    "is": 71,
    "다": 72,
    "h": 73,
    "▁in": 74,
    "ir": 75,
    "▁A": 76,
    "ra": 77,
    "te": 78,
    "▁G": 79,
    "▁T": 80,
    "▁L": 81,
    "os": 82,
    "ia": 83,
    "le": 84,
    "▁D": 85,
    "A": 86,
    "ic": 87,
    "ro": 88,
    "▁F": 89,
    "ch": 90,
    "et": 91,
    "em": 92,
    "se": 93,
    "ur": 94,
    "▁I": 95,
    "é": 96,
    "▁k": 97,
    "ie": 98,
    "▁E": 99,
    "w": 100,
    "us": 101,
    "▁he": 102,
    "ad": 103,
    "ol": 104,
    "am": 105,
    "ri": 106,
    "ig": 107,
    "▁H": 108,
    "▁R": 109,
    "▁N": 110,
    "'": 111,
    "st": 112,
    "om": 113,
    "ent": 114,
    "ter": 115,
    "▁be": 116,
    "E": 117,
    "▁is": 118,
    "▁w": 119,
    "▁K": 120,
    ")": 121,
    "ul": 122,
    "▁do": 123,
    "▁for": 124,
    "j": 125,
    "to": 126,
    "im": 127,
    "O": 128,
    "id": 129,
    "S": 130,
    "ut": 131,
    "▁(": 132,
    "á": 133,
    "▁that": 134,
    "▁j": 135,
    "▁o": 136,
    "um": 137,
    "▁him": 138,
    ":": 139,
    "C": 140,
    "ac": 141,
    "▁re": 142,
    "ot": 143,
    "▁e": 144,
    "un": 145,
    "▁ch": 146,
    "▁J": 147,
    "io": 148,
    "ant": 149,
    "í": 150,
    "▁you": 151,
    "▁O": 152,
    "▁se": 153,
    "I": 154,
    "est": 155,
    "▁V": 156,
    "▁z": 157,
    "▁st": 158,
    "▁r": 159,
    "ag": 160,
    "ab": 161,
    "ou": 162,
    "ation": 163,
    "ion": 164,
    "au": 165,
    "하다": 166,
    "ado": 167,
    "T": 168,
    "ce": 169,
    "▁1": 170,
    "▁And": 171,
    "▁W": 172,
    "ne": 173,
    "ão": 174,
    "qu": 175,
    "x": 176,
    "▁me": 177,
    "▁2": 178,
    "de": 179,
    "U": 180,
    "▁al": 181,
    "▁his": 182,
    "he": 183,
    "ess": 184,
    "ine": 185,
    "ap": 186,
    "1": 187,
    "ec": 188,
    "▁3": 189,
    "end": 190,
    "▁an": 191,
    "av": 192,
    "ist": 193,
    "ung": 194,
    "▁ab": 195,
    "▁not": 196,
    "▁pro": 197,
    "oc": 198,
    "ip": 199,
    "if": 200,
    ";": 201,
    "M": 202,
    "ge": 203,
    "od": 204,
    "▁with": 205,
    "ell": 206,
    "P": 207,
    "G": 208,
    "D": 209,
    "ien": 210,
    "▁man": 211,
    "▁on": 212,
    "▁un": 213,
    "me": 214,
    "th": 215,
    "iv": 216,
    "▁was": 217,
    "ier": 218,
    "ah": 219,
    "ard": 220,
    "ov": 221,
    "ha": 222,
    "2": 223,
    "L": 224,
    "▁ver": 225,
    "▁it": 226,
    "ta": 227,
    "ica": 228,
    "▁all": 229,
    "and": 230,
    "ve": 231,
    "eth": 232,
    "ente": 233,
    "ate": 234,
    "op": 235,
    "R": 236,
    "iz": 237,
    "▁they": 238,
    "▁en": 239,
    "ind": 240,
    "?": 241,
    "_": 242,
    "▁them": 243,
    "▁qu": 244,
    "ow": 245,
    "▁ar": 246,
    "ina": 247,
    "ill": 248,
    "ik": 249,
    "ly": 250,
    "▁sp": 251,
    "ó": 252,
    "eg": 253,
    "og": 254,
    "ord": 255,
    "ire": 256,
    "ak": 257,
    "AR": 258,
    "ER": 259,
    "B": 260,
    "▁em": 261,
    "ü": 262,
    "ers": 263,
    "ä": 264,
    "▁com": 265,
    "▁no": 266,
    "▁é": 267,
    "▁ro": 268,
    "ver": 269,
    "ob": 270,
    "ira": 271,
    "ib": 272,
    "ud": 273,
    "ern": 274,
    "▁but": 275,
    "▁tr": 276,
    "all": 277,
    "▁le": 278,
    "▁con": 279,
    "ast": 280,
    "▁cl": 281,
    "ens": 282,
    "▁as": 283,
    "H": 284,
    "▁pr": 285,
    "ma": 286,
    "AN": 287,
    "▁par": 288,
    "ay": 289,
    "▁-": 290,
    "ach": 291,
    "F": 292,
    "▁am": 293,
    "▁The": 294,
    "▁ra": 295,
    "ere": 296,
    "▁said": 297,
    "che": 298,
    "0": 299,
    "▁mar": 300,
    "▁4": 301,
    "▁per": 302,
    "▁pl": 303,
    "▁at": 304,
    "▁will": 305,
    "▁are": 306,
    "▁who": 307,
    "▁da": 308,
    "N": 309,
    "▁ne": 310,
    "ação": 311,
    "ub": 312,
    "ang": 313,
    "ico": 314,
    "ho": 315,
    "eb": 316,
    "our": 317,
    "▁fl": 318,
    "ran": 319,
    "ive": 320,
    "▁bl": 321,
    "ff": 322,
    "co": 323,
    "▁sh": 324,
    "▁car": 325,
    "▁des": 326,
    "ure": 327,
    "be": 328,
    "3": 329,
    "▁God": 330,
    "▁or": 331,
    "V": 332,
    "▁\"": 333,
    "ost": 334,
    "▁ex": 335,
    "▁ad": 336,
    "ug": 337,
    "ada": 338,
    "▁unto": 339,
    "one": 340,
    "ES": 341,
    "up": 342,
    "per": 343,
    "pl": 344,
    "ise": 345,
    "▁U": 346,
    "iss": 347,
    "▁ap": 348,
    "▁He": 349,
    "und": 350,
    "ont": 351,
    "▁one": 352,
    "▁my": 353,
    "▁from": 354,
    "ue": 355,
    "ij": 356,
    "az": 357,
    "ich": 358,
    "ok": 359,
    "ide": 360,
    "ust": 361,
    "▁est": 362,
    "▁Z": 363,
    "art": 364,
    "ça": 365,
    "▁th": 366,
    "age": 367,
    "▁up": 368,
    "ass": 369,
    "▁br": 370,
    "idade": 371,
    "ber": 372,
    "▁we": 373,
    "sch": 374,
    "▁your": 375,
    "▁In": 376,
    "4": 377,
    "▁shall": 378,
    "▁gr": 379,
    "▁el": 380,
    "▁Jesus": 381,
    "ção": 382,
    "▁bo": 383,
    "ite": 384,
    "▁Mar": 385,
    "ial": 386,
    "▁ac": 387,
    "ا": 388,
    "old": 389,
    "ke": 390,
    "5": 391,
    "uc": 392,
    "IN": 393,
    "▁sch": 394,
    "▁have": 395,
    "IS": 396,
    "ê": 397,
    "ort": 398,
    "ice": 399,
    "▁out": 400,
    "▁im": 401,
    "▁tra": 402,
    "ten": 403,
    "ix": 404,
    "ons": 405,
    "ement": 406,
    "ana": 407,
    "▁u": 408,
    "ja": 409,
    "pe": 410,
    "q": 411,
    "ual": 412,
    "▁her": 413,
    "que": 414,
    "▁Al": 415,
    "ken": 416,
    "7": 417,
    "EN": 418,
    "▁5": 419,
    "▁An": 420,
    "ú": 421,
    "bl": 422,
    "do": 423,
    "ras": 424,
    "ous": 425,
    "par": 426,
    "ond": 427,
    "▁Sch": 428,
    "ON": 429,
    "▁av": 430,
    "mer": 431,
    "▁were": 432,
    "ry": 433,
    "iel": 434,
    "/": 435,
    "int": 436,
    "▁pre": 437,
    "▁ob": 438,
    "pr": 439,
    "▁gra": 440,
    "iro": 441,
    "ish": 442,
    "▁there": 443,
    "▁which": 444,
    "ile": 445,
    "▁cor": 446,
    "AL": 447,
    "ek": 448,
    "ain": 449,
    "OR": 450,
    "▁go": 451,
    "ito": 452,
    "ear": 453,
    "è": 454,
    "fer": 455,
    "▁For": 456,
    "▁po": 457,
    "č": 458,
    "ka": 459,
    "ner": 460,
    "▁ri": 461,
    "▁la": 462,
    "▁dé": 463,
    "ura": 464,
    "ela": 465,
    "ante": 466,
    "als": 467,
    "▁co": 468,
    "out": 469,
    "EL": 470,
    "uch": 471,
    "ze": 472,
    "▁Ver": 473,
    "men": 474,
    "▁이": 475,
    "la": 476,
    "ose": 477,
    "!": 478,
    "▁when": 479,
    "▁this": 480,
    "▁by": 481,
    "▁Ab": 482,
    "hr": 483,
    "▁so": 484,
    "ft": 485,
    "ora": 486,
    "▁sign": 487,
    "are": 488,
    "da": 489,
    "▁fe": 490,
    "▁para": 491,
    "▁ma": 492,
    "ick": 493,
    "na": 494,
    "▁es": 495,
    "har": 496,
    "af": 497,
    "IA": 498,
    "ment": 499,
    "ph": 500,
    "ian": 501,
    "gen": 502,
    "▁esc": 503,
    "▁sinal": 504,
    "▁que": 505,
    "ě": 506,
    "Z": 507,
    "▁acc": 508,
    "gu": 509,
    "▁inter": 510,
    "▁men": 511,
    "9": 512,
    "rit": 513,
    "ks": 514,
    "6": 515,
    "ér": 516,
    "ign": 517,
    "OS": 518,
    "▁us": 519,
    "ty": 520,
    "ep": 521,
    "ct": 522,
    "res": 523,
    "▁their": 524,
    "▁Ar": 525,
    "ru": 526,
    "ci": 527,
    "▁had": 528,
    "je": 529,
    "MA": 530,
    "so": 531,
    "ca": 532,
    "ath": 533,
    "nt": 534,
    "ý": 535,
    "ies": 536,
    "â": 537,
    "ba": 538,
    "▁col": 539,
    "▁cont": 540,
    "ö": 541,
    "8": 542,
    "ux": 543,
    "no": 544,
    "ino": 545,
    "ر": 546,
    "▁por": 547,
    "ied": 548,
    "eh": 549,
    "▁St": 550,
    "▁cou": 551,
    "va": 552,
    "ي": 553,
    "cl": 554,
    "▁things": 555,
    "▁But": 556,
    "▁não": 557,
    "za": 558,
    "ade": 559,
    "▁ter": 560,
    "po": 561,
    "ato": 562,
    "Y": 563,
    "TO": 564,
    "oll": 565,
    "ore": 566,
    "▁à": 567,
    "▁let": 568,
    "ect": 569,
    "ç": 570,
    "cer": 571,
    "▁come": 572,
    "tion": 573,
    "ulo": 574,
    "cia": 575,
    "car": 576,
    "W": 577,
    "lich": 578,
    "iar": 579,
    "▁tem": 580,
    "nd": 581,
    "ness": 582,
    "▁가": 583,
    "š": 584,
    "ador": 585,
    "ger": 586,
    "▁ré": 587,
    "ins": 588,
    "eta": 589,
    "▁gl": 590,
    "▁bar": 591,
    "▁na": 592,
    "we": 593,
    "▁hand": 594,
    ".\"": 595,
    "rar": 596,
    "▁sal": 597,
    "▁int": 598,
    "chen": 599,
    "J": 600,
    "▁can": 601,
    "ome": 602,
    "▁er": 603,
    "pt": 604,
    "▁conf": 605,
    "ido": 606,
    "▁6": 607,
    "ss": 608,
    "▁ag": 609,
    "her": 610,
    "vo": 611,
    "AS": 612,
    "IL": 613,
    "▁min": 614,
    "ren": 615,
    "ew": 616,
    "Á": 617,
    "▁ye": 618,
    "orn": 619,
    "▁te": 620,
    "ans": 621,
    "ale": 622,
    "les": 623,
    "▁dis": 624,
    "ai": 625,
    "▁Th": 626,
    "jo": 627,
    "lo": 628,
    "▁fr": 629,
    "ique": 630,
    "▁thou": 631,
    "TE": 632,
    "K": 633,
    "ng": 634,
    "ity": 635,
    "ل": 636,
    "ong": 637,
    "▁cam": 638,
    "ž": 639,
    "du": 640,
    "▁reg": 641,
    "▁wh": 642,
    "ck": 643,
    "ista": 644,
    "▁came": 645,
    "▁Le": 646,
    "▁comp": 647,
    "▁ser": 648,
    "▁pas": 649,
    "▁name": 650,
    "ima": 651,
    "ée": 652,
    "ário": 653,
    "▁she": 654,
    "ês": 655,
    "ance": 656,
    "ø": 657,
    "ola": 658,
    "ater": 659,
    "ight": 660,
    "fe": 661,
    "ink": 662,
    "▁into": 663,
    "ida": 664,
    "ace": 665,
    "▁pass": 666,
    "▁mat": 667,
    "tar": 668,
    "és": 669,
    "-1": 670,
    "▁sk": 671,
    "▁Y": 672,
    "ć": 673,
    "▁know": 674,
    "ame": 675,
    "▁sl": 676,
    "▁pe": 677,
    "mar": 678,
    "▁person": 679,
    "ult": 680,
    "mb": 681,
    "ano": 682,
    "▁su": 683,
    "iet": 684,
    "ille": 685,
    "만": 686,
    "▁사": 687,
    "م": 688,
    "å": 689,
    "pre": 690,
    "ole": 691,
    "elo": 692,
    "▁down": 693,
    "ô": 694,
    "ase": 695,
    "hen": 696,
    "▁pra": 697,
    "▁del": 698,
    "oso": 699,
    "orm": 700,
    "ara": 701,
    "use": 702,
    "oth": 703,
    "oss": 704,
    "ence": 705,
    "▁son": 706,
    "▁ent": 707,
    "ria": 708,
    "ild": 709,
    "▁sur": 710,
    "pa": 711,
    "go": 712,
    "ati": 713,
    "able": 714,
    "ven": 715,
    "row": 716,
    "▁two": 717,
    "▁gu": 718,
    "TA": 719,
    "▁El": 720,
    "RO": 721,
    "▁aut": 722,
    "▁y": 723,
    "▁res": 724,
    "▁op": 725,
    "▁vo": 726,
    "isch": 727,
    "kt": 728,
    "port": 729,
    "ن": 730,
    "▁sent": 731,
    "▁day": 732,
    "omb": 733,
    "▁없다": 734,
    "▁pri": 735,
    "▁liv": 736,
    "▁Ch": 737,
    "rom": 738,
    "den": 739,
    "ake": 740,
    "▁sc": 741,
    "▁ass": 742,
    "ef": 743,
    "▁cap": 744,
    "ís": 745,
    "ieren": 746,
    "ب": 747,
    "이": 748,
    "mo": 749,
    "alt": 750,
    "ex": 751,
    "▁also": 752,
    "▁Libras": 753,
    "rir": 754,
    "기": 755,
    "▁what": 756,
    "▁fil": 757,
    "ř": 758,
    "ita": 759,
    "▁기": 760,
    "IC": 761,
    "정": 762,
    "▁Pa": 763,
    "amb": 764,
    "ento": 765,
    "▁mor": 766,
    "▁don": 767,
    "vel": 768,
    "▁tre": 769,
    "ivo": 770,
    "▁went": 771,
    "▁sem": 772,
    "ete": 773,
    "air": 774,
    "RA": 775,
    "▁ال": 776,
    "▁cu": 777,
    "ender": 778,
    "지": 779,
    "▁um": 780,
    "▁du": 781,
    "uf": 782,
    "land": 783,
    "inho": 784,
    "▁Sinal": 785,
    "rer": 786,
    "ros": 787,
    "olog": 788,
    "ave": 789,
    "▁아": 790,
    "▁over": 791,
    "▁mon": 792,
    "가": 793,
    "▁good": 794,
    "▁Car": 795,
    "▁Re": 796,
    "min": 797,
    "rat": 798,
    "지다": 799,
    "▁fo": 800,
    "▁way": 801,
    "ula": 802,
    "man": 803,
    "▁beg": 804,
    "▁Lord": 805,
    "و": 806,
    "ß": 807,
    "cher": 808,
    "▁Q": 809,
    "▁7": 810,
    "ull": 811,
    "X": 812,
    "▁dire": 813,
    "▁ou": 814,
    "▁che": 815,
    "ound": 816,
    "ais": 817,
    "ram": 818,
    "AD": 819,
    "▁ge": 820,
    "▁met": 821,
    "icar": 822,
    "▁Bar": 823,
    "uss": 824,
    "ple": 825,
    "▁pol": 826,
    "▁Est": 827,
    "rag": 828,
    "cht": 829,
    "att": 830,
    "▁these": 831,
    "▁cri": 832,
    "▁Wh": 833,
    "ité": 834,
    "der": 835,
    "▁It": 836,
    "át": 837,
    "ler": 838,
    "▁Christ": 839,
    "ias": 840,
    "▁part": 841,
    "▁bro": 842,
    "د": 843,
    "ys": 844,
    "elle": 845,
    "ema": 846,
    "▁Let": 847,
    "zen": 848,
    "gar": 849,
    "ute": 850,
    "uer": 851,
    "este": 852,
    "▁esp": 853,
    "ét": 854,
    "itt": 855,
    "itar": 856,
    "리": 857,
    "ة": 858,
    "▁Lu": 859,
    "ane": 860,
    "▁오": 861,
    "ric": 862,
    "RI": 863,
    "▁9": 864,
    "gue": 865,
    "▁mal": 866,
    "▁Maranhão": 867,
    "▁rec": 868,
    "▁ein": 869,
    "nen": 870,
    "inar": 871,
    "▁8": 872,
    "quer": 873,
    "of": 874,
    "▁trans": 875,
    "imento": 876,
    "sed": 877,
    "pro": 878,
    "ata": 879,
    "▁Sign": 880,
    "emb": 881,
    "ular": 882,
    "gh": 883,
    "00": 884,
    "▁무": 885,
    "ع": 886,
    "ت": 887,
    "IR": 888,
    "▁rel": 889,
    "▁off": 890,
    "ps": 891,
    "▁ins": 892,
    "▁bu": 893,
    "atur": 894,
    "▁ta": 895,
    "sk": 896,
    "day": 897,
    "도": 898,
    "ack": 899,
    "ít": 900,
    "ismo": 901,
    "르다": 902,
    "à": 903,
    "ron": 904,
    "▁ir": 905,
    "▁heart": 906,
    "ija": 907,
    "▁dia": 908,
    "inha": 909,
    "심": 910,
    "▁mo": 911,
    "의": 912,
    "▁sa": 913,
    "▁hundred": 914,
    "ñ": 915,
    "ando": 916,
    "하": 917,
    "▁ban": 918,
    "▁il": 919,
    "▁before": 920,
    "ert": 921,
    "▁set": 922,
    "ôn": 923,
    "ning": 924,
    "hl": 925,
    "▁dar": 926,
    "vis": 927,
    "▁et": 928,
    "▁Then": 929,
    "ÃO": 930,
    "pos": 931,
    "ock": 932,
    "▁Gr": 933,
    "ations": 934,
    "OL": 935,
    "상": 936,
    "▁than": 937,
    "▁sy": 938,
    "AM": 939,
    "▁ve": 940,
    "ém": 941,
    "ã": 942,
    "tre": 943,
    "ood": 944,
    "ition": 945,
    "iter": 946,
    "ical": 947,
    "ove": 948,
    "gel": 949,
    "▁X": 950,
    "▁UF": 951,
    "▁Am": 952,
    "ero": 953,
    "tes": 954,
    "▁thy": 955,
    "vers": 956,
    "리다": 957,
    "▁á": 958,
    "▁die": 959,
    "ser": 960,
    "▁Par": 961,
    "▁mu": 962,
    "▁every": 963,
    "▁Un": 964,
    "▁Is": 965,
    "▁see": 966,
    "▁Be": 967,
    "lu": 968,
    "▁rem": 969,
    "▁look": 970,
    "▁give": 971,
    "vent": 972,
    "▁father": 973,
    "س": 974,
    "ient": 975,
    "erg": 976,
    "▁cal": 977,
    "▁Ad": 978,
    "bar": 979,
    "▁has": 980,
    "▁resp": 981,
    "▁away": 982,
    "ree": 983,
    "amp": 984,
    "▁time": 985,
    "▁sol": 986,
    "▁saying": 987,
    "▁ind": 988,
    "én": 989,
    "rio": 990,
    "ço": 991,
    "icht": 992,
    "▁dr": 993,
    "él": 994,
    "sel": 995,
    "▁wor": 996,
    "bo": 997,
    "▁When": 998,
    "▁De": 999,
    "raf": 1000,
    "▁계": 1001,
    "▁der": 1002,
    "tern": 1003,
    "▁if": 1004,
    "▁bre": 1005,
    "TI": 1006,
    "▁med": 1007,
    "▁ba": 1008,
    "▁att": 1009,
    "▁They": 1010,
    "ral": 1011,
    "inal": 1012,
    "red": 1013,
    "▁대": 1014,
    "▁test": 1015,
    "▁sub": 1016,
    "▁righteous": 1017,
    "▁pal": 1018,
    "▁fin": 1019,
    "▁mov": 1020,
    "ena": 1021,
    "시": 1022,
    "ás": 1023,
    "▁sm": 1024,
    "▁number": 1025,
    "▁dif": 1026,
    "ande": 1027,
    "▁right": 1028,
    "▁nov": 1029,
    "ris": 1030,
    "agem": 1031,
    "HA": 1032,
    "분": 1033,
    "▁Ol": 1034,
    "ência": 1035,
    "▁SC": 1036,
    "▁Com": 1037,
    "▁#": 1038,
    "LE": 1039,
    "ón": 1040,
    "oca": 1041,
    "없다": 1042,
    "▁six": 1043,
    "▁af": 1044,
    "iqu": 1045,
    "문": 1046,
    "▁three": 1047,
    "▁Fl": 1048,
    "ann": 1049,
    "안": 1050,
    "라": 1051,
    "esch": 1052,
    "▁vers": 1053,
    "▁house": 1054,
    "▁Son": 1055,
    "rie": 1056,
    "▁children": 1057,
    "▁Ex": 1058,
    "aus": 1059,
    "amento": 1060,
    "▁people": 1061,
    "▁dos": 1062,
    "ret": 1063,
    "ings": 1064,
    "▁5:": 1065,
    "wer": 1066,
    "▁wicked": 1067,
    "▁say": 1068,
    "▁Con": 1069,
    "ingu": 1070,
    "dos": 1071,
    "aud": 1072,
    "IG": 1073,
    "▁Pro": 1074,
    "OM": 1075,
    "▁rece": 1076,
    "▁mer": 1077,
    "▁cab": 1078,
    "ior": 1079,
    "ID": 1080,
    "▁voc": 1081,
    "▁sin": 1082,
    "sh": 1083,
    "AC": 1084,
    "▁q": 1085,
    "uro": 1086,
    "iste": 1087,
    "▁vis": 1088,
    "▁left": 1089,
    "▁i": 1090,
    "▁ed": 1091,
    "ction": 1092,
    "(": 1093,
    "ł": 1094,
    "ward": 1095,
    "▁6:": 1096,
    "mel": 1097,
    "mat": 1098,
    "ief": 1099,
    "▁var": 1100,
    "▁gen": 1101,
    "▁earth": 1102,
    "▁did": 1103,
    "▁may": 1104,
    "▁many": 1105,
    "▁3:": 1106,
    "ble": 1107,
    "▁own": 1108,
    "▁inf": 1109,
    "▁four": 1110,
    "éd": 1111,
    "ister": 1112,
    "▁after": 1113,
    "▁En": 1114,
    "ح": 1115,
    "-2": 1116,
    "▁years": 1117,
    "▁fal": 1118,
    "EM": 1119,
    "나다": 1120,
    "▁sou": 1121,
    "▁jo": 1122,
    "ف": 1123,
    "ific": 1124,
    "iana": 1125,
    "over": 1126,
    "gl": 1127,
    "▁8:": 1128,
    "▁'": 1129,
    "ful": 1130,
    "duc": 1131,
    "▁therefore": 1132,
    "▁pres": 1133,
    "▁mas": 1134,
    "▁dem": 1135,
    "ní": 1136,
    "ject": 1137,
    "ese": 1138,
    "▁전": 1139,
    "▁Cl": 1140,
    "rig": 1141,
    "ologia": 1142,
    "ght": 1143,
    "fl": 1144,
    "▁x": 1145,
    "▁those": 1146,
    "▁thee": 1147,
    "una": 1148,
    "imo": 1149,
    "iah": 1150,
    "entro": 1151,
    "cis": 1152,
    "▁answered": 1153,
    "stit": 1154,
    "pres": 1155,
    "olo": 1156,
    "▁auf": 1157,
    "ule": 1158,
    "▁hor": 1159,
    "▁because": 1160,
    "▁bal": 1161,
    "var": 1162,
    "ele": 1163,
    "▁Sur": 1164,
    "▁19": 1165,
    "ress": 1166,
    "ivers": 1167,
    "ette": 1168,
    "ben": 1169,
    "▁div": 1170,
    "▁Esc": 1171,
    "▁MEL": 1172,
    "ios": 1173,
    "▁eat": 1174,
    "▁light": 1175,
    "▁cur": 1176,
    "▁made": 1177,
    "▁Qu": 1178,
    "▁pap": 1179,
    "▁mou": 1180,
    "pen": 1181,
    "iva": 1182,
    "국": 1183,
    "▁thir": 1184,
    "▁je": 1185,
    "▁great": 1186,
    "É": 1187,
    "iti": 1188,
    "igo": 1189,
    "anda": 1190,
    "인": 1191,
    "▁mult": 1192,
    "▁king": 1193,
    "▁days": 1194,
    "▁There": 1195,
    "ts": 1196,
    "▁ho": 1197,
    "▁even": 1198,
    "▁So": 1199,
    "▁Se": 1200,
    "▁AN": 1201,
    "esta": 1202,
    "OU": 1203,
    "전": 1204,
    "▁life": 1205,
    "▁bon": 1206,
    "▁Maria": 1207,
    "▁CAS": 1208,
    "▁Br": 1209,
    "len": 1210,
    "▁mag": 1211,
    "▁Her": 1212,
    "▁4:": 1213,
    "ör": 1214,
    "uz": 1215,
    "udar": 1216,
    "▁som": 1217,
    "▁should": 1218,
    "▁about": 1219,
    "▁hear": 1220,
    "▁As": 1221,
    "ible": 1222,
    "▁ste": 1223,
    "▁disc": 1224,
    "▁São": 1225,
    "▁DE": 1226,
    "its": 1227,
    "+": 1228,
    "▁보다": 1229,
    "▁vol": 1230,
    "▁Mat": 1231,
    "ital": 1232,
    "ident": 1233,
    "hn": 1234,
    "cel": 1235,
    "aut": 1236,
    "▁where": 1237,
    "▁ph": 1238,
    "▁lan": 1239,
    "app": 1240,
    "ton": 1241,
    "rado": 1242,
    "ode": 1243,
    "erson": 1244,
    "▁sim": 1245,
    "▁inc": 1246,
    "▁gre": 1247,
    "ila": 1248,
    "▁like": 1249,
    "▁Er": 1250,
    "val": 1251,
    "fen": 1252,
    "IO": 1253,
    "사": 1254,
    "▁고": 1255,
    "▁sto": 1256,
    "▁ol": 1257,
    "▁10": 1258,
    "ekt": 1259,
    "asse": 1260,
    "▁م": 1261,
    "▁les": 1262,
    "▁Me": 1263,
    "RE": 1264,
    "▁č": 1265,
    "▁open": 1266,
    "▁art": 1267,
    "▁7:": 1268,
    "▁1:": 1269,
    "ère": 1270,
    "undo": 1271,
    "UL": 1272,
    "▁nome": 1273,
    "▁kl": 1274,
    "▁hath": 1275,
    "igen": 1276,
    "6:": 1277,
    "▁cons": 1278,
    "▁LORD": 1279,
    "▁seg": 1280,
    "▁mouth": 1281,
    "pel": 1282,
    "eter": 1283,
    "ede": 1284,
    "우": 1285,
    "▁tri": 1286,
    "▁lo": 1287,
    "▁hom": 1288,
    "▁2:": 1289,
    "▁bra": 1290,
    "▁ask": 1291,
    "por": 1292,
    "년": 1293,
    "교": 1294,
    "▁water": 1295,
    "▁sel": 1296,
    "▁love": 1297,
    "▁cer": 1298,
    "íc": 1299,
    "rog": 1300,
    "rist": 1301,
    "OC": 1302,
    "▁sw": 1303,
    "▁ret": 1304,
    "arm": 1305,
    "들다": 1306,
    "두다": 1307,
    "▁our": 1308,
    "어": 1309,
    "발": 1310,
    "▁more": 1311,
    "▁Ceará": 1312,
    "▁AL": 1313,
    "ía": 1314,
    "ves": 1315,
    "con": 1316,
    "ET": 1317,
    "▁any": 1318,
    "▁0": 1319,
    "los": 1320,
    "▁disciples": 1321,
    "▁ant": 1322,
    "▁Sp": 1323,
    "า": 1324,
    "jar": 1325,
    "▁kn": 1326,
    "urs": 1327,
    "esso": 1328,
    "▁fool": 1329,
    "▁bet": 1330,
    "▁aus": 1331,
    "ko": 1332,
    "QU": 1333,
    "▁take": 1334,
    "éc": 1335,
    "idad": 1336,
    "▁Yahweh": 1337,
    "실": 1338,
    "▁end": 1339,
    "▁Now": 1340,
    "unn": 1341,
    "ions": 1342,
    "cha": 1343,
    "▁same": 1344,
    "▁cin": 1345,
    "way": 1346,
    "ição": 1347,
    "▁os": 1348,
    "▁mil": 1349,
    "▁long": 1350,
    "▁Bairro": 1351,
    "uto": 1352,
    "DE": 1353,
    "자": 1354,
    "▁불": 1355,
    "▁tell": 1356,
    "▁saw": 1357,
    "▁pa": 1358,
    "▁10:": 1359,
    "ruc": 1360,
    "amar": 1361,
    "UN": 1362,
    "▁si": 1363,
    "▁ig": 1364,
    "▁fa": 1365,
    "iment": 1366,
    "ament": 1367,
    "▁tw": 1368,
    "▁sec": 1369,
    "▁Es": 1370,
    "▁14:": 1371,
    "cy": 1372,
    "8:": 1373,
    "서": 1374,
    "▁sab": 1375,
    "▁how": 1376,
    "▁hel": 1377,
    "▁cas": 1378,
    "▁bas": 1379,
    "ème": 1380,
    "zy": 1381,
    "urn": 1382,
    "▁speak": 1383,
    "▁mam": 1384,
    "▁land": 1385,
    "▁circ": 1386,
    "▁13:": 1387,
    "▁11:": 1388,
    "uter": 1389,
    "oria": 1390,
    "ely": 1391,
    "ín": 1392,
    "AT": 1393,
    "7:": 1394,
    "조": 1395,
    "▁nor": 1396,
    "▁fam": 1397,
    "▁again": 1398,
    "igh": 1399,
    "0:": 1400,
    "▁소": 1401,
    "Ó": 1402,
    "ember": 1403,
    "ause": 1404,
    "DO": 1405,
    "명": 1406,
    "▁At": 1407,
    "own": 1408,
    "lic": 1409,
    "kel": 1410,
    "ator": 1411,
    "PA": 1412,
    "일": 1413,
    "▁같다": 1414,
    "▁sor": 1415,
    "▁seven": 1416,
    "▁CM": 1417,
    "▁16:": 1418,
    "ك": 1419,
    "ange": 1420,
    "▁words": 1421,
    "▁put": 1422,
    "▁pos": 1423,
    "▁comm": 1424,
    "▁Cor": 1425,
    "jet": 1426,
    "ily": 1427,
    "act": 1428,
    "\"": 1429,
    "▁then": 1430,
    "▁ten": 1431,
    "▁sat": 1432,
    "▁fer": 1433,
    "▁Reg": 1434,
    "lex": 1435,
    "▁walk": 1436,
    "▁fra": 1437,
    "▁She": 1438,
    "Í": 1439,
    "uel": 1440,
    "000": 1441,
    "▁ref": 1442,
    "▁mot": 1443,
    "▁mod": 1444,
    "▁mes": 1445,
    "▁cro": 1446,
    "▁9:": 1447,
    "let": 1448,
    "gan": 1449,
    "emática": 1450,
    "UR": 1451,
    "▁ord": 1452,
    "▁jud": 1453,
    "ós": 1454,
    "med": 1455,
    "iação": 1456,
    "▁beh": 1457,
    "vol": 1458,
    "lia": 1459,
    "ende": 1460,
    "▁18:": 1461,
    "uno": 1462,
    "aca": 1463,
    "HO": 1464,
    "▁sil": 1465,
    "▁heard": 1466,
    "▁gar": 1467,
    "▁exp": 1468,
    "▁conc": 1469,
    "▁MAR": 1470,
    "iver": 1471,
    "irar": 1472,
    "egar": 1473,
    "9:": 1474,
    "천": 1475,
    "▁공": 1476,
    "▁himself": 1477,
    "▁bec": 1478,
    "▁15:": 1479,
    "▁12:": 1480,
    "jon": 1481,
    "ión": 1482,
    "ather": 1483,
    "▁head": 1484,
    "▁face": 1485,
    "▁desc": 1486,
    "▁Sal": 1487,
    "rim": 1488,
    "press": 1489,
    "ison": 1490,
    "ipe": 1491,
    "gua": 1492,
    "ever": 1493,
    "▁place": 1494,
    "▁law": 1495,
    "▁Pl": 1496,
    "íngua": 1497,
    "sy": 1498,
    "oud": 1499,
    "cle": 1500,
    "ación": 1501,
    "내": 1502,
    "▁city": 1503,
    "▁Fran": 1504,
    "▁ES": 1505,
    "son": 1506,
    "ião": 1507,
    "iane": 1508,
    "▁writ": 1509,
    "▁př": 1510,
    "▁far": 1511,
    "▁den": 1512,
    "▁Ma": 1513,
    "right": 1514,
    "onder": 1515,
    "ents": 1516,
    "십": 1517,
    "▁유": 1518,
    "▁결": 1519,
    "▁work": 1520,
    "▁pat": 1521,
    "▁Deus": 1522,
    "oir": 1523,
    "ift": 1524,
    "▁구": 1525,
    "▁woman": 1526,
    "▁cat": 1527,
    "▁bes": 1528,
    "▁Ara": 1529,
    "ham": 1530,
    "US": 1531,
    "▁word": 1532,
    "▁tal": 1533,
    "▁prof": 1534,
    "▁much": 1535,
    "▁hier": 1536,
    "▁fre": 1537,
    "▁das": 1538,
    "▁contin": 1539,
    "ória": 1540,
    "에": 1541,
    "▁충": 1542,
    "▁inst": 1543,
    "▁No": 1544,
    "ua": 1545,
    "▁sup": 1546,
    "▁hum": 1547,
    "▁five": 1548,
    "kl": 1549,
    "cept": 1550,
    "▁생각": 1551,
    "▁od": 1552,
    "▁now": 1553,
    "▁get": 1554,
    "▁command": 1555,
    "▁bel": 1556,
    "rad": 1557,
    "ider": 1558,
    "▁tro": 1559,
    "▁pessoa": 1560,
    "▁hab": 1561,
    "▁Ind": 1562,
    "sp": 1563,
    "net": 1564,
    "apt": 1565,
    "alth": 1566,
    "▁old": 1567,
    "▁eyes": 1568,
    "zar": 1569,
    "phe": 1570,
    "장": 1571,
    "▁hon": 1572,
    "▁dist": 1573,
    "ég": 1574,
    "ân": 1575,
    "jn": 1576,
    "aux": 1577,
    "▁시": 1578,
    "▁wat": 1579,
    "▁first": 1580,
    "▁express": 1581,
    "▁evil": 1582,
    "fore": 1583,
    "bre": 1584,
    "▁pod": 1585,
    "▁enc": 1586,
    "▁dec": 1587,
    "ocar": 1588,
    "kom": 1589,
    "izar": 1590,
    "isa": 1591,
    "ige": 1592,
    "매": 1593,
    "▁sn": 1594,
    "▁leg": 1595,
    "▁bou": 1596,
    "ther": 1597,
    "met": 1598,
    "asc": 1599,
    "anc": 1600,
    "IT": 1601,
    "▁rep": 1602,
    "▁ear": 1603,
    "▁another": 1604,
    "ät": 1605,
    "ungs": 1606,
    "iat": 1607,
    "hor": 1608,
    "ally": 1609,
    "▁neg": 1610,
    "▁mother": 1611,
    "▁ano": 1612,
    "ق": 1613,
    "selves": 1614,
    "nes": 1615,
    "ene": 1616,
    "▁turn": 1617,
    "▁fall": 1618,
    "▁called": 1619,
    "▁20:": 1620,
    "udo": 1621,
    "rita": 1622,
    "?\"": 1623,
    "▁바꾸다": 1624,
    "▁twenty": 1625,
    "▁some": 1626,
    "▁kom": 1627,
    "추": 1628,
    "로": 1629,
    "▁tom": 1630,
    "▁comun": 1631,
    "mp": 1632,
    "ize": 1633,
    "endre": 1634,
    "eld": 1635,
    "▁happ": 1636,
    "▁ev": 1637,
    "▁Port": 1638,
    "Ç": 1639,
    "tra": 1640,
    "ower": 1641,
    "enta": 1642,
    "asser": 1643,
    "▁together": 1644,
    "▁Bl": 1645,
    "rol": 1646,
    "for": 1647,
    "ants": 1648,
    "건": 1649,
    "▁cre": 1650,
    "ë": 1651,
    "ker": 1652,
    "eral": 1653,
    "보": 1654,
    "▁whom": 1655,
    "▁heaven": 1656,
    "▁fing": 1657,
    "▁class": 1658,
    "▁back": 1659,
    "rü": 1660,
    "▁지": 1661,
    "▁신": 1662,
    "▁ple": 1663,
    "▁just": 1664,
    "▁found": 1665,
    "▁We": 1666,
    "ões": 1667,
    "î": 1668,
    "ory": 1669,
    "fic": 1670,
    "▁ي": 1671,
    "▁soc": 1672,
    "▁grand": 1673,
    "▁Father": 1674,
    "▁Col": 1675,
    "óp": 1676,
    "tor": 1677,
    "ovat": 1678,
    "osa": 1679,
    "dução": 1680,
    "혼": 1681,
    "강": 1682,
    "uit": 1683,
    "osta": 1684,
    "illa": 1685,
    "aj": 1686,
    "▁dre": 1687,
    "▁PMS": 1688,
    "onte": 1689,
    "form": 1690,
    "▁pot": 1691,
    "▁ann": 1692,
    "unt": 1693,
    "▁world": 1694,
    "▁seu": 1695,
    "▁giv": 1696,
    "▁dest": 1697,
    "▁Ne": 1698,
    "▁Israel": 1699,
    "ür": 1700,
    "yer": 1701,
    "ither": 1702,
    "용": 1703,
    "모": 1704,
    "▁표제어": 1705,
    "▁through": 1706,
    "▁form": 1707,
    "▁17:": 1708,
    "ร": 1709,
    "är": 1710,
    "ál": 1711,
    "ved": 1712,
    "ush": 1713,
    "oto": 1714,
    "ona": 1715,
    "oly": 1716,
    "ný": 1717,
    "ht": 1718,
    "eto": 1719,
    "ecer": 1720,
    "ados": 1721,
    "IB": 1722,
    "2:": 1723,
    "▁upon": 1724,
    "▁took": 1725,
    "▁pear": 1726,
    "▁most": 1727,
    "▁lib": 1728,
    "▁keep": 1729,
    "▁ele": 1730,
    "▁dan": 1731,
    "▁Te": 1732,
    "xt": 1733,
    "ures": 1734,
    "ume": 1735,
    "ugu": 1736,
    "tain": 1737,
    "eliz": 1738,
    "IM": 1739,
    "1:": 1740,
    "▁super": 1741,
    "ump": 1742,
    "sa": 1743,
    "ota": 1744,
    "orar": 1745,
    "hel": 1746,
    "▁nicht": 1747,
    "▁Peter": 1748,
    "ÇÃO": 1749,
    "ours": 1750,
    "ley": 1751,
    "iano": 1752,
    "▁자": 1753,
    "▁어": 1754,
    "▁tak": 1755,
    "▁soul": 1756,
    "▁propos": 1757,
    "▁other": 1758,
    "▁mit": 1759,
    "▁against": 1760,
    "▁SIN": 1761,
    "▁Or": 1762,
    "uri": 1763,
    "화": 1764,
    "▁rest": 1765,
    "▁cra": 1766,
    "▁animal": 1767,
    "▁Prof": 1768,
    "▁21:": 1769,
    "gra": 1770,
    "IE": 1771,
    "▁깨끗하다": 1772,
    "▁~": 1773,
    "▁nothing": 1774,
    "▁Luc": 1775,
    "▁19:": 1776,
    "self": 1777,
    "oup": 1778,
    "ors": 1779,
    "ixo": 1780,
    "dom": 1781,
    "OV": 1782,
    "고": 1783,
    "▁부": 1784,
    "▁stand": 1785,
    "▁11": 1786,
    "rica": 1787,
    "inc": 1788,
    "illed": 1789,
    "eln": 1790,
    "bi": 1791,
    "DA": 1792,
    "원하다": 1793,
    "▁wise": 1794,
    "▁ut": 1795,
    "▁spirit": 1796,
    "▁João": 1797,
    "▁Jac": 1798,
    "zo": 1799,
    "ky": 1800,
    "ional": 1801,
    "bol": 1802,
    "ager": 1803,
    "울": 1804,
    "▁ا": 1805,
    "▁char": 1806,
    "▁casa": 1807,
    "▁app": 1808,
    "▁Sh": 1809,
    "▁Af": 1810,
    "▁일": 1811,
    "▁wa": 1812,
    "▁sob": 1813,
    "▁pes": 1814,
    "▁gro": 1815,
    "▁call": 1816,
    "▁abs": 1817,
    "▁UFERSA": 1818,
    "çar": 1819,
    "uk": 1820,
    "AB": 1821,
    "치다": 1822,
    "백": 1823,
    "▁tou": 1824,
    "▁cast": 1825,
    "▁John": 1826,
    "set": 1827,
    "mbol": 1828,
    "entar": 1829,
    "enc": 1830,
    "ash": 1831,
    "3:": 1832,
    "▁십": 1833,
    "▁teach": 1834,
    "▁str": 1835,
    "▁sex": 1836,
    "▁main": 1837,
    "uar": 1838,
    "통": 1839,
    "독": 1840,
    "▁lar": 1841,
    "▁expl": 1842,
    "▁dom": 1843,
    "ün": 1844,
    "ãe": 1845,
    "bal": 1846,
    "▁반": 1847,
    "▁oc": 1848,
    "▁loc": 1849,
    "▁eu": 1850,
    "▁Jews": 1851,
    "▁Jer": 1852,
    "íst": 1853,
    "ág": 1854,
    "itude": 1855,
    "era": 1856,
    "ches": 1857,
    "ank": 1858,
    "▁나": 1859,
    "▁pou": 1860,
    "▁hist": 1861,
    "▁eight": 1862,
    "▁compl": 1863,
    "▁cent": 1864,
    "▁among": 1865,
    "▁aff": 1866,
    "▁Man": 1867,
    "▁Il": 1868,
    "▁IN": 1869,
    "▁Hand": 1870,
    "anto": 1871,
    "▁yet": 1872,
    "▁und": 1873,
    "▁ton": 1874,
    "▁hands": 1875,
    "▁ca": 1876,
    "▁You": 1877,
    "▁MA": 1878,
    "ج": 1879,
    "omet": 1880,
    "ious": 1881,
    "해": 1882,
    "니": 1883,
    "▁pour": 1884,
    "▁poss": 1885,
    "▁past": 1886,
    "▁forth": 1887,
    "qui": 1888,
    "iten": 1889,
    "isse": 1890,
    "ikk": 1891,
    "ated": 1892,
    "ama": 1893,
    "SL": 1894,
    "▁그": 1895,
    "▁sac": 1896,
    "▁ped": 1897,
    "▁mel": 1898,
    "▁di": 1899,
    "▁Pra": 1900,
    "▁Ped": 1901,
    "▁CH": 1902,
    "ên": 1903,
    "icós": 1904,
    "eren": 1905,
    "enda": 1906,
    "ción": 1907,
    "ats": 1908,
    "름": 1909,
    "▁한": 1910,
    "▁벌": 1911,
    "▁pelo": 1912,
    "▁18": 1913,
    "ħ": 1914,
    "vat": 1915,
    "ster": 1916,
    "ines": 1917,
    "ges": 1918,
    "dia": 1919,
    "atro": 1920,
    "▁수정": 1921,
    "▁pet": 1922,
    "▁li": 1923,
    "▁fri": 1924,
    "▁Ro": 1925,
    "▁Gl": 1926,
    "น": 1927,
    "wo": 1928,
    "wa": 1929,
    "upo": 1930,
    "▁여러": 1931,
    "▁fac": 1932,
    "▁dra": 1933,
    "▁cr": 1934,
    "▁Universidade": 1935,
    "▁Ac": 1936,
    "ę": 1937,
    "uth": 1938,
    "di": 1939,
    "agen": 1940,
    "IRE": 1941,
    "▁well": 1942,
    "▁red": 1943,
    "▁make": 1944,
    "▁inform": 1945,
    "▁enter": 1946,
    "▁Jo": 1947,
    "éri": 1948,
    "ody": 1949,
    "ld": 1950,
    "fabeto": 1951,
    "ape": 1952,
    "NE": 1953,
    "있다": 1954,
    "▁olhar": 1955,
    "▁entre": 1956,
    "▁cle": 1957,
    "▁Ze": 1958,
    "▁Gal": 1959,
    "▁23:": 1960,
    "ulado": 1961,
    "ono": 1962,
    "cri": 1963,
    "anz": 1964,
    "ED": 1965,
    "▁nam": 1966,
    "▁imp": 1967,
    "▁env": 1968,
    "▁bed": 1969,
    "▁12": 1970,
    "ه": 1971,
    "ring": 1972,
    "ió": 1973,
    "▁보": 1974,
    "▁viol": 1975,
    "▁understanding": 1976,
    "▁plan": 1977,
    "▁mus": 1978,
    "▁list": 1979,
    "▁Ter": 1980,
    "▁Sy": 1981,
    "▁Fortaleza": 1982,
    "▁Brasil": 1983,
    "ith": 1984,
    "ett": 1985,
    "esh": 1986,
    "▁servant": 1987,
    "▁Fe": 1988,
    "urg": 1989,
    "ought": 1990,
    "ling": 1991,
    "li": 1992,
    "inh": 1993,
    "guage": 1994,
    "ahr": 1995,
    "악하다": 1996,
    "▁uma": 1997,
    "▁mais": 1998,
    "▁Co": 1999,
    "▁Ap": 2000,
    "rau": 2001,
    "leep": 2002,
    "ished": 2003,
    "igura": 2004,
    "ativ": 2005,
    "alk": 2006,
    "아": 2007,
    "▁연": 2008,
    "▁미": 2009,
    "▁말": 2010,
    "▁tel": 2011,
    "ès": 2012,
    "ste": 2013,
    "ail": 2014,
    "싫": 2015,
    "금": 2016,
    "▁다": 2017,
    "▁lu": 2018,
    "▁glory": 2019,
    "▁faire": 2020,
    "zie": 2021,
    "ural": 2022,
    "rv": 2023,
    "hed": 2024,
    "...": 2025,
    "등": 2026,
    "▁saith": 2027,
    "▁priest": 2028,
    "▁might": 2029,
    "▁lim": 2030,
    "▁Val": 2031,
    "▁If": 2032,
    "udd": 2033,
    "led": 2034,
    "iller": 2035,
    "char": 2036,
    "SA": 2037,
    "비": 2038,
    "▁wisdom": 2039,
    "▁ven": 2040,
    "▁hair": 2041,
    "▁ens": 2042,
    "▁déc": 2043,
    "▁cour": 2044,
    "▁La": 2045,
    "▁202": 2046,
    "uni": 2047,
    "inder": 2048,
    "ept": 2049,
    "augh": 2050,
    "AP": 2051,
    "5:": 2052,
    "▁똑똑하다": 2053,
    "▁second": 2054,
    "▁libras": 2055,
    "▁fav": 2056,
    "▁doc": 2057,
    "▁cop": 2058,
    "▁amar": 2059,
    "▁Phil": 2060,
    "▁Nor": 2061,
    "▁Jud": 2062,
    "▁Ana": 2063,
    "▁Alla": 2064,
    "▁All": 2065,
    "ånd": 2066,
    "ues": 2067,
    "ism": 2068,
    "isk": 2069,
    "igne": 2070,
    "ieg": 2071,
    "hand": 2072,
    "gre": 2073,
    "entes": 2074,
    "ander": 2075,
    "주": 2076,
    "방": 2077,
    "▁경": 2078,
    "▁wife": 2079,
    "▁thousand": 2080,
    "▁surdo": 2081,
    "▁pessoas": 2082,
    "▁high": 2083,
    "▁faith": 2084,
    "▁dois": 2085,
    "▁certain": 2086,
    "▁This": 2087,
    "▁LB": 2088,
    "▁Fing": 2089,
    "▁Bo": 2090,
    "▁24:": 2091,
    "ش": 2092,
    "stell": 2093,
    "riting": 2094,
    "ady": 2095,
    "EU": 2096,
    "▁최": 2097,
    "▁would": 2098,
    "▁question": 2099,
    "▁help": 2100,
    "▁child": 2101,
    "▁Por": 2102,
    "▁Cam": 2103,
    "▁Ber": 2104,
    "ño": 2105,
    "unic": 2106,
    "mas": 2107,
    "keit": 2108,
    "ière": 2109,
    "itor": 2110,
    "irt": 2111,
    "inais": 2112,
    "ime": 2113,
    "aro": 2114,
    "agog": 2115,
    "CH": 2116,
    "▁뻔": 2117,
    "▁É": 2118,
    "▁sé": 2119,
    "▁surda": 2120,
    "▁rou": 2121,
    "▁bor": 2122,
    "▁Dar": 2123,
    "▁22:": 2124,
    "sen": 2125,
    "iner": 2126,
    "icia": 2127,
    "erv": 2128,
    "RU": 2129,
    "대": 2130,
    "▁중": 2131,
    "▁마": 2132,
    "▁stra": 2133,
    "▁sit": 2134,
    "▁méd": 2135,
    "▁fif": 2136,
    "▁din": 2137,
    "æ": 2138,
    "hem": 2139,
    "gr": 2140,
    "fa": 2141,
    "학": 2142,
    "▁nin": 2143,
    "▁follow": 2144,
    "▁bir": 2145,
    "▁add": 2146,
    "▁Regen": 2147,
    "▁Fre": 2148,
    "LA": 2149,
    "IV": 2150,
    "수": 2151,
    "마": 2152,
    "들": 2153,
    "▁제": 2154,
    "▁exc": 2155,
    "ope": 2156,
    "oke": 2157,
    "iß": 2158,
    "itter": 2159,
    "enn": 2160,
    "dade": 2161,
    "EIR": 2162,
    "편": 2163,
    "음": 2164,
    "▁되": 2165,
    "▁über": 2166,
    "▁year": 2167,
    "▁val": 2168,
    "▁projeto": 2169,
    "▁princ": 2170,
    "▁id": 2171,
    "▁fear": 2172,
    "▁dou": 2173,
    "▁au": 2174,
    "▁Sem": 2175,
    "▁200": 2176,
    "áp": 2177,
    "yp": 2178,
    "ika": 2179,
    "hal": 2180,
    "ball": 2181,
    "▁잘하다": 2182,
    "▁알아": 2183,
    "▁감": 2184,
    "▁pens": 2185,
    "▁meu": 2186,
    "▁To": 2187,
    "▁Fil": 2188,
    "tem": 2189,
    "opp": 2190,
    "heiro": 2191,
    "abet": 2192,
    "부": 2193,
    "▁이야기": 2194,
    "▁yes": 2195,
    "▁mão": 2196,
    "▁done": 2197,
    "▁aj": 2198,
    "▁Silva": 2199,
    "▁Sant": 2200,
    "▁Pal": 2201,
    "▁Je": 2202,
    "ص": 2203,
    "än": 2204,
    "cho": 2205,
    "▁von": 2206,
    "▁trou": 2207,
    "▁sinais": 2208,
    "▁port": 2209,
    "▁für": 2210,
    "▁fun": 2211,
    "▁belie": 2212,
    "▁bat": 2213,
    "▁Federal": 2214,
    "▁16": 2215,
    "û": 2216,
    "uta": 2217,
    "ti": 2218,
    "TAR": 2219,
    "PO": 2220,
    "회": 2221,
    "▁화": 2222,
    "▁종": 2223,
    "▁week": 2224,
    "▁knowledge": 2225,
    "▁har": 2226,
    "▁Jos": 2227,
    "ön": 2228,
    "án": 2229,
    "teen": 2230,
    "heit": 2231,
    "cio": 2232,
    "ature": 2233,
    "ago": 2234,
    "abe": 2235,
    "0000": 2236,
    "증": 2237,
    "단": 2238,
    "▁속": 2239,
    "▁sich": 2240,
    "▁seek": 2241,
    "▁night": 2242,
    "▁bol": 2243,
    "▁Spirit": 2244,
    "▁Daniel": 2245,
    "▁201": 2246,
    "ête": 2247,
    "thers": 2248,
    "rop": 2249,
    "ogo": 2250,
    "iser": 2251,
    "elho": 2252,
    "arde": 2253,
    "acional": 2254,
    "파": 2255,
    "▁모": 2256,
    "▁voice": 2257,
    "▁quar": 2258,
    "▁numero": 2259,
    "▁lav": 2260,
    "▁inv": 2261,
    "▁believe": 2262,
    "▁Sam": 2263,
    "▁Gebär": 2264,
    "▁Esp": 2265,
    "oi": 2266,
    "ju": 2267,
    "ga": 2268,
    "cul": 2269,
    "RAS": 2270,
    "4:": 2271,
    "▁유치하다": 2272,
    "▁광": 2273,
    "▁profess": 2274,
    "▁proc": 2275,
    "▁númer": 2276,
    "▁litt": 2277,
    "▁lips": 2278,
    "▁lab": 2279,
    "▁gave": 2280,
    "▁fru": 2281,
    "▁conse": 2282,
    "▁Santos": 2283,
    "▁Ass": 2284,
    "Ê": 2285,
    "vant": 2286,
    "usto": 2287,
    "ré": 2288,
    "ruction": 2289,
    "aw": 2290,
    "▁주": 2291,
    "▁very": 2292,
    "▁tu": 2293,
    "▁pron": 2294,
    "▁depart": 2295,
    "▁bom": 2296,
    "▁ast": 2297,
    "อ": 2298,
    "ør": 2299,
    "zt": 2300,
    "ugar": 2301,
    "rown": 2302,
    "oun": 2303,
    "ores": 2304,
    "ention": 2305,
    "ened": 2306,
    "band": 2307,
    "ars": 2308,
    "▁생": 2309,
    "▁“": 2310,
    "▁tur": 2311,
    "▁ru": 2312,
    "▁fu": 2313,
    "▁compor": 2314,
    "▁bread": 2315,
    "▁best": 2316,
    "▁PRE": 2317,
    "▁Bel": 2318,
    "”": 2319,
    "ů": 2320,
    "áb": 2321,
    "une": 2322,
    "ters": 2323,
    "rib": 2324,
    "encia": 2325,
    "auf": 2326,
    "acht": 2327,
    "RIO": 2328,
    "격": 2329,
    "▁변이형": 2330,
    "▁dur": 2331,
    "▁act": 2332,
    "▁Im": 2333,
    "omp": 2334,
    "ni": 2335,
    "assen": 2336,
    "ary": 2337,
    "abl": 2338,
    "복": 2339,
    "▁맞": 2340,
    "▁wit": 2341,
    "▁lie": 2342,
    "▁death": 2343,
    "▁bil": 2344,
    "▁amb": 2345,
    "▁Município": 2346,
    "▁Estado": 2347,
    "▁Dav": 2348,
    "▁25:": 2349,
    "zer": 2350,
    "odo": 2351,
    "mc": 2352,
    "agar": 2353,
    "adr": 2354,
    "achen": 2355,
    "ADO": 2356,
    "직": 2357,
    "못": 2358,
    "▁être": 2359,
    "▁sons": 2360,
    "▁mid": 2361,
    "▁hal": 2362,
    "▁cult": 2363,
    "▁RE": 2364,
    "▁CL": 2365,
    "е": 2366,
    "hol": 2367,
    "bel": 2368,
    "-3": 2369,
    "으": 2370,
    "▁해": 2371,
    "▁new": 2372,
    "▁kon": 2373,
    "▁kle": 2374,
    "▁jun": 2375,
    "▁dw": 2376,
    "▁def": 2377,
    "ś": 2378,
    "ï": 2379,
    "íbl": 2380,
    "wn": 2381,
    "richt": 2382,
    "nis": 2383,
    "left": 2384,
    "ites": 2385,
    "ets": 2386,
    "erspelling": 2387,
    "eli": 2388,
    "agh": 2389,
    "ír": 2390,
    "ao": 2391,
    "차": 2392,
    "▁under": 2393,
    "육": 2394,
    "원": 2395,
    "구": 2396,
    "أ": 2397,
    "ude": 2398,
    "제": 2399,
    "신": 2400,
    "물": 2401,
    "히": 2402,
    "억": 2403,
    "특": 2404,
    "바": 2405,
    "▁알": 2406,
    "▁ey": 2407,
    "@": 2408,
    "خ": 2409,
    "rou": 2410,
    "ม": 2411,
    "래": 2412,
    "돈": 2413,
    "▁수": 2414,
    "크": 2415,
    "요": 2416,
    "외": 2417,
    "친": 2418,
    "닮": 2419,
    "개": 2420,
    "나": 2421,
    "▁understand": 2422,
    "т": 2423,
    "đ": 2424,
    "ط": 2425,
    "о": 2426,
    "ż": 2427,
    "초": 2428,
    "▁Dan": 2429,
    "달": 2430,
    "종": 2431,
    "เ": 2432,
    "ก": 2433,
    "other": 2434,
    "엉": 2435,
    "합": 2436,
    "포": 2437,
    "묻": 2438,
    "접": 2439,
    "약": 2440,
    "않": 2441,
    "검": 2442,
    "ą": 2443,
    "▁ever": 2444,
    "번": 2445,
    "동": 2446,
    "ส": 2447,
    "ática": 2448,
    "stand": 2449,
    "할": 2450,
    "청": 2451,
    "남": 2452,
    "Ü": 2453,
    "imal": 2454,
    "패": 2455,
    "두": 2456,
    "▁num": 2457,
    "ibras": 2458,
    "순": 2459,
    "훌": 2460,
    "륭": 2461,
    "려": 2462,
    "▁dep": 2463,
    "ike": 2464,
    "삼": 2465,
    "루": 2466,
    "결": 2467,
    "а": 2468,
    "잊": 2469,
    "*": 2470,
    "힘": 2471,
    "▁vi": 2472,
    "▁ans": 2473,
    "ّ": 2474,
    "양": 2475,
    "법": 2476,
    "많": 2477,
    "ง": 2478,
    "fab": 2479,
    "확": 2480,
    "팔": 2481,
    "입": 2482,
    "날": 2483,
    "귀": 2484,
    "간": 2485,
    "airro": 2486,
    "황": 2487,
    "좋": 2488,
    "영": 2489,
    "ว": 2490,
    "관": 2491,
    "뻔": 2492,
    "맞": 2493,
    "란": 2494,
    "ย": 2495,
    "&": 2496,
    "칠": 2497,
    "엇": 2498,
    "anh": 2499,
    "존": 2500,
    "▁Ph": 2501,
    "빌": 2502,
    "과": 2503,
    "게": 2504,
    "▁ke": 2505,
    "้": 2506,
    "손": 2507,
    "목": 2508,
    "견": 2509,
    "ife": 2510,
    "평": 2511,
    "망": 2512,
    "돌": 2513,
    "▁spe": 2514,
    "행": 2515,
    "예": 2516,
    "류": 2517,
    "ั": 2518,
    "Â": 2519,
    "뼈": 2520,
    "령": 2521,
    "Q": 2522,
    "산": 2523,
    "▁fir": 2524,
    "▁answer": 2525,
    "취": 2526,
    "찮": 2527,
    "질": 2528,
    "빨": 2529,
    "▁20": 2530,
    "ี": 2531,
    "멋": 2532,
    "락": 2533,
    "갑": 2534,
    "험": 2535,
    "족": 2536,
    "말": 2537,
    "get": 2538,
    "터": 2539,
    "ouse": 2540,
    "작": 2541,
    "능": 2542,
    "▁discip": 2543,
    "▁Sil": 2544,
    "н": 2545,
    "판": 2546,
    "잠": 2547,
    "위": 2548,
    "숙": 2549,
    "력": 2550,
    "럽": 2551,
    "ค": 2552,
    "oman": 2553,
    "빼": 2554,
    "’": 2555,
    "켜": 2556,
    "프": 2557,
    "찍": 2558,
    "병": 2559,
    "궁": 2560,
    "ด": 2561,
    "ث": 2562,
    "่": 2563,
    "ء": 2564,
    "치": 2565,
    "연": 2566,
    "론": 2567,
    "▁heav": 2568,
    "Ú": 2569,
    "람": 2570,
    "임": 2571,
    "올": 2572,
    "배": 2573,
    "미": 2574,
    "깝": 2575,
    "с": 2576,
    "때": 2577,
    "и": 2578,
    "훔": 2579,
    "본": 2580,
    "닦": 2581,
    "ิ": 2582,
    "ض": 2583,
    "hing": 2584,
    "죽": 2585,
    "브": 2586,
    "▁Geb": 2587,
    "ز": 2588,
    "진": 2589,
    "역": 2590,
    "빠": 2591,
    "별": 2592,
    "레": 2593,
    "늦": 2594,
    "속": 2595,
    "급": 2596,
    "ล": 2597,
    "ท": 2598,
    "팍": 2599,
    "철": 2600,
    "짜": 2601,
    "적": 2602,
    "세": 2603,
    "괴": 2604,
    "ต": 2605,
    "р": 2606,
    "훈": 2607,
    "횡": 2608,
    "축": 2609,
    "밖": 2610,
    "무": 2611,
    "련": 2612,
    "ò": 2613,
    "싸": 2614,
    "거": 2615,
    "غ": 2616,
    "한": 2617,
    "옛": 2618,
    "열": 2619,
    "맡": 2620,
    "난": 2621,
    "Ô": 2622,
    "오": 2623,
    "쁘": 2624,
    "북": 2625,
    "밝": 2626,
    "갚": 2627,
    "ะ": 2628,
    "บ": 2629,
    "irc": 2630,
    "필": 2631,
    "잡": 2632,
    "▁변": 2633,
    "꼴": 2634,
    "겁": 2635,
    "범": 2636,
    "는": 2637,
    "=": 2638,
    "운": 2639,
    "경": 2640,
    "겸": 2641,
    "▁Univers": 2642,
    "–": 2643,
    "ń": 2644,
    "Ã": 2645,
    "ersp": 2646,
    "중": 2647,
    "석": 2648,
    "딩": 2649,
    "ь": 2650,
    "в": 2651,
    "ى": 2652,
    "ذ": 2653,
    "줄": 2654,
    "익": 2655,
    "술": 2656,
    "소": 2657,
    "땀": 2658,
    "글": 2659,
    "์": 2660,
    "д": 2661,
    "ips": 2662,
    "희": 2663,
    "트": 2664,
    "따": 2665,
    "elling": 2666,
    "스": 2667,
    "러": 2668,
    "ù": 2669,
    "°": 2670,
    "jeto": 2671,
    "혀": 2672,
    "토": 2673,
    "재": 2674,
    "닫": 2675,
    "끝": 2676,
    "계": 2677,
    "▁깨": 2678,
    "ห": 2679,
    "묵": 2680,
    "▁Jew": 2681,
    "▁Bras": 2682,
    "ă": 2683,
    "참": 2684,
    "당": 2685,
    "놀": 2686,
    "▁pesso": 2687,
    "유": 2688,
    "쇠": 2689,
    "변": 2690,
    "랑": 2691,
    "뚱": 2692,
    "덕": 2693,
    "눈": 2694,
    "호": 2695,
    "저": 2696,
    "을": 2697,
    "욕": 2698,
    "애": 2699,
    "량": 2700,
    "놔": 2701,
    "그": 2702,
    "ế": 2703,
    "ไ": 2704,
    "м": 2705,
    "밉": 2706,
    "드": 2707,
    "꼼": 2708,
    "▁Jes": 2709,
    "พ": 2710,
    "ň": 2711,
    "úmer": 2712,
    "식": 2713,
    "ป": 2714,
    "Ä": 2715,
    "았": 2716,
    "갈": 2717,
    "л": 2718,
    "ư": 2719,
    "..": 2720,
    "품": 2721,
    "워": 2722,
    "샤": 2723,
    "볍": 2724,
    "ORD": 2725,
    "툼": 2726,
    "략": 2727,
    "꺼": 2728,
    "각": 2729,
    "ุ": 2730,
    "퍼": 2731,
    "여": 2732,
    "뿐": 2733,
    "답": 2734,
    "괜": 2735,
    "п": 2736,
    "맹": 2737,
    "ạ": 2738,
    "จ": 2739,
    "잣": 2740,
    "옮": 2741,
    "셈": 2742,
    "뽑": 2743,
    "버": 2744,
    "밤": 2745,
    "둡": 2746,
    "돕": 2747,
    "깡": 2748,
    "겹": 2749,
    "▁잘": 2750,
    "▁hund": 2751,
    "ố": 2752,
    "활": 2753,
    "섞": 2754,
    "생": 2755,
    "새": 2756,
    "베": 2757,
    "맣": 2758,
    "뜻": 2759,
    "까": 2760,
    "군": 2761,
    "ข": 2762,
    "rael": 2763,
    "끄": 2764,
    "pio": 2765,
    "irit": 2766,
    "MS": 2767,
    "피": 2768,
    "첫": 2769,
    "쫓": 2770,
    "째": 2771,
    "알": 2772,
    "โ": 2773,
    "ู": 2774,
    "Ö": 2775,
    "었": 2776,
    "뛰": 2777,
    "꼬": 2778,
    "к": 2779,
    "estion": 2780,
    "탱": 2781,
    "찌": 2782,
    "쥐": 2783,
    "바꾸다": 2784,
    "공": 2785,
    "ы": 2786,
    "être": 2787,
    "풀": 2788,
    "코": 2789,
    "창": 2790,
    "뱉": 2791,
    "멕": 2792,
    "맛": 2793,
    "롭": 2794,
    "▁같": 2795,
    "▁Chr": 2796,
    "ữ": 2797,
    "ئ": 2798,
    "unicípio": 2799,
    "함": 2800,
    "표": 2801,
    "콩": 2802,
    "출": 2803,
    "집": 2804,
    "살": 2805,
    "반": 2806,
    "른": 2807,
    "냥": 2808,
    "께": 2809,
    "걱": 2810,
    "팬": 2811,
    "티": 2812,
    "탈": 2813,
    "카": 2814,
    "엽": 2815,
    "쌍": 2816,
    "막": 2817,
    "둘": 2818,
    "깨": 2819,
    "я": 2820,
    "협": 2821,
    "폭": 2822,
    "찰": 2823,
    "짬": 2824,
    "와": 2825,
    "뽕": 2826,
    "뜨": 2827,
    "네": 2828,
    "ช": 2829,
    "찾": 2830,
    "준": 2831,
    "져": 2832,
    "완": 2833,
    "앞": 2834,
    "딱": 2835,
    "꽃": 2836,
    "▁wis": 2837,
    "ธ": 2838,
    "ظ": 2839,
    "ċ": 2840,
    "anhão": 2841,
    "헬": 2842,
    "핸": 2843,
    "폰": 2844,
    "케": 2845,
    "충": 2846,
    "멧": 2847,
    "를": 2848,
    "농": 2849,
    "길": 2850,
    "แ": 2851,
    "й": 2852,
    "ź": 2853,
    "Ġ": 2854,
    "über": 2855,
    "휘": 2856,
    "획": 2857,
    "투": 2858,
    "솔": 2859,
    "림": 2860,
    "낚": 2861,
    "긁": 2862,
    "€": 2863,
    "ệ": 2864,
    "ấ": 2865,
    "ื": 2866,
    "ถ": 2867,
    "у": 2868,
    "б": 2869,
    "Ì": 2870,
    "·": 2871,
    "캡": 2872,
    "짓": 2873,
    "섭": 2874,
    "록": 2875,
    "▁Fed": 2876,
    "ใ": 2877,
    "ч": 2878,
    "혹": 2879,
    "혈": 2880,
    "태": 2881,
    "좁": 2882,
    "쟁": 2883,
    "벗": 2884,
    "넓": 2885,
    "권": 2886,
    "감": 2887,
    "ờ": 2888,
    "ậ": 2889,
    "Š": 2890,
    "Ħ": 2891,
    "enty": 2892,
    ">": 2893,
    "척": 2894,
    "빛": 2895,
    "밭": 2896,
    "립": 2897,
    "디": 2898,
    "득": 2899,
    "돼": 2900,
    "깐": 2901,
    "ฟ": 2902,
    "Ø": 2903,
    "후": 2904,
    "염": 2905,
    "씻": 2906,
    "님": 2907,
    "い": 2908,
    "ọ": 2909,
    "ả": 2910,
    "ì": 2911,
    "¡": 2912,
    "옥": 2913,
    "볼": 2914,
    "례": 2915,
    "낫": 2916,
    "껌": 2917,
    "ợ": 2918,
    "ộ": 2919,
    "ồ": 2920,
    "ề": 2921,
    "ắ": 2922,
    "х": 2923,
    "À": 2924,
    "^": 2925,
    "탁": 2926,
    "월": 2927,
    "습": 2928,
    "선": 2929,
    "ш": 2930,
    "ď": 2931,
    "민": 2932,
    "링": 2933,
    "덜": 2934,
    "깊": 2935,
    "ซ": 2936,
    "ġ": 2937,
    "£": 2938,
    "ghteous": 2939,
    "박": 2940,
    "근": 2941,
    "▁Fort": 2942,
    "إ": 2943,
    "Č": 2944,
    "했": 2945,
    "넘": 2946,
    "것": 2947,
    "ภ": 2948,
    "ť": 2949,
    "teous": 2950,
    "택": 2951,
    "키": 2952,
    "빚": 2953,
    "뭐": 2954,
    "멍": 2955,
    "맙": 2956,
    "르": 2957,
    "꿈": 2958,
    "≠": 2959,
    "ỏ": 2960,
    "ํ": 2961,
    "ж": 2962,
    "ơ": 2963,
    "뭔": 2964,
    "겠": 2965,
    "ầ": 2966,
    "ᄌ": 2967,
    "항": 2968,
    "승": 2969,
    "노": 2970,
    "끓": 2971,
    "걷": 2972,
    "ớ": 2973,
    "ณ": 2974,
    "з": 2975,
    "Õ": 2976,
    "Å": 2977,
    "weh": 2978,
    "ould": 2979,
    "%": 2980,
    "채": 2981,
    "벨": 2982,
    "덴": 2983,
    "끼": 2984,
    "곳": 2985,
    "곰": 2986,
    "값": 2987,
    "ủ": 2988,
    "ổ": 2989,
    "ị": 2990,
    "ญ": 2991,
    "Æ": 2992,
    "ople": 2993,
    "움": 2994,
    "성": 2995,
    "듣": 2996,
    "ự": 2997,
    "็": 2998,
    "ษ": 2999,
    "ц": 3000,
    "형": 3001,
    "타": 3002,
    "김": 3003,
    "▁여": 3004,
    "▁Cear": 3005,
    "ศ": 3006,
    "г": 3007,
    "¿": 3008,
    "©": 3009,
    "ollow": 3010,
    "gether": 3011,
    "층": 3012,
    "없": 3013,
    "끔": 3014,
    "▁Yah": 3015,
    "ừ": 3016,
    "ứ": 3017,
    "ở": 3018,
    "ؤ": 3019,
    "Ś": 3020,
    "Ñ": 3021,
    "rough": 3022,
    "aleza": 3023,
    "있": 3024,
    "ỉ": 3025,
    "ể": 3026,
    "ẹ": 3027,
    "ặ": 3028,
    "ึ": 3029,
    "ผ": 3030,
    "آ": 3031,
    "́": 3032,
    "총": 3033,
    "면": 3034,
    "데": 3035,
    "‘": 3036,
    "ฐ": 3037,
    "ฎ": 3038,
    "Ł": 3039,
    "ípio": 3040,
    "È": 3041,
    "}": 3042,
    "{": 3043,
    "ousand": 3044,
    "icked": 3045,
    "`": 3046,
    "[": 3047,
    "<": 3048,
    "은": 3049,
    "광": 3050,
    "▁표": 3051,
    "—": 3052,
    "ử": 3053,
    "ụ": 3054,
    "ฮ": 3055,
    "ฉ": 3056,
    "Ž": 3057,
    "œ": 3058,
    "Đ": 3059,
    "õ": 3060,
    "ledge": 3061,
    "]": 3062,
    "\\": 3063,
    "$": 3064,
    "테": 3065,
    "책": 3066,
    "절": 3067,
    "๊": 3068,
    "ф": 3069,
    "Ż": 3070,
    "": 3071,
    "ERSA": 3072,
    "탓": 3073,
    "침": 3074,
    "점": 3075,
    "얻": 3076,
    "야": 3077,
    "쓰": 3078,
    "섯": 3079,
    "샀": 3080,
    "받": 3081,
    "며": 3082,
    "먼": 3083,
    "너": 3084,
    "끊": 3085,
    "뀌": 3086,
    "같": 3087,
    "十": 3088,
    "三": 3089,
    "▁똑": 3090,
    "ẻ": 3091,
    "ẵ": 3092,
    "ฒ": 3093,
    "У": 3094,
    "Р": 3095,
    "ő": 3096,
    "ĩ": 3097,
    "|": 3098,
    "펜": 3099,
    "옷": 3100,
    "숲": 3101,
    "색": 3102,
    "렸": 3103,
    "띄": 3104,
    "떻": 3105,
    "든": 3106,
    "더": 3107,
    "걸": 3108,
    "零": 3109,
    "思": 3110,
    "五": 3111,
    "七": 3112,
    "一": 3113,
    "♥": 3114,
    "ỹ": 3115,
    "ỡ": 3116,
    "ỗ": 3117,
    "မဂၤလာပါ": 3118,
    "ๆ": 3119,
    "ฬ": 3120,
    "ฑ": 3121,
    "ฏ": 3122,
    "ฆ": 3123,
    "ْ": 3124,
    "َ": 3125,
    "ї": 3126,
    "ю": 3127,
    "э": 3128,
    "П": 3129,
    "ː": 3130,
    "Ř": 3131,
    "ĉ": 3132,
    "ð": 3133,
    "Ù": 3134,
    "»": 3135,
    "«": 3136,
    "팀": 3137,
    "커": 3138,
    "칙": 3139,
    "착": 3140,
    "줬": 3141,
    "제어": 3142,
    "잖": 3143,
    "왔": 3144,
    "얼": 3145,
    "숫": 3146,
    "블랙": 3147,
    "먹": 3148,
    "린": 3149,
    "렌": 3150,
    "런": 3151,
    "던데": 3152,
    "넷": 3153,
    "覚悟を決める": 3154,
    "母親": 3155,
    "本": 3156,
    "恭喜": 3157,
    "四": 3158,
    "六": 3159,
    "八": 3160,
    "作揖": 3161,
    "今": 3162,
    "二": 3163,
    "九": 3164,
    "モ": 3165,
    "タ": 3166,
    "ジ": 3167,
    "シ": 3168,
    "れ": 3169,
    "も": 3170,
    "は": 3171,
    "なぜ": 3172,
    "どうやって": 3173,
    "どうして": 3174,
    "つまらな": 3175,
    "た": 3176,
    "し": 3177,
    "これしかな": 3178,
    "くだらな": 3179,
    "きって": 3180,
    "ⵡ": 3181,
    "○○": 3182,
    "≤": 3183,
    "„": 3184,
    "“": 3185,
    "ỳ": 3186,
    "ễ": 3187,
    "ᅲ": 3188,
    "ᅬ": 3189,
    "ᄋ": 3190,
    "ᄂ": 3191,
    "က": 3192,
    "ฤ": 3193,
    "ฝ": 3194,
    "ผึ": 3195,
    "ฌ": 3196,
    "יהוה": 3197,
    "חבר": 3198,
    "Я": 3199,
    "Ю": 3200,
    "Щ": 3201,
    "Ш": 3202,
    "Ч": 3203,
    "Х": 3204,
    "Ф": 3205,
    "С": 3206,
    "О": 3207,
    "М": 3208,
    "Л": 3209,
    "К": 3210,
    "Й": 3211,
    "И": 3212,
    "З": 3213,
    "Ж": 3214,
    "Е": 3215,
    "Д": 3216,
    "Г": 3217,
    "В": 3218,
    "Б": 3219,
    "А": 3220,
    "μ": 3221,
    "ˆ": 3222,
    "ƒ": 3223,
    "Ź": 3224,
    "ŭ": 3225,
    "ũ": 3226,
    "ō": 3227,
    "Ń": 3228,
    "Ę": 3229,
    "Đứ": 3230,
    "Ć": 3231,
    "Ą": 3232,
    "Î": 3233,
    "[]": 3234,
    "～": 3235,
    "휴": 3236,
    "홉": 3237,
    "혜": 3238,
    "현": 3239,
    "햡": 3240,
    "틀": 3241,
    "퇴": 3242,
    "킨": 3243,
    "큼": 3244,
    "클은": 3245,
    "콜": 3246,
    "컸": 3247,
    "컴퓨": 3248,
    "컨": 3249,
    "체": 3250,
    "쩔": 3251,
    "즐긴": 3252,
    "읗": 3253,
    "읖": 3254,
    "읒": 3255,
    "응": 3256,
    "읍": 3257,
    "은데": 3258,
    "왜": 3259,
    "였": 3260,
    "엔": 3261,
    "업": 3262,
    "언": 3263,
    "앱": 3264,
    "슨": 3265,
    "쉽": 3266,
    "쉰": 3267,
    "셋": 3268,
    "빵": 3269,
    "불": 3270,
    "봐": 3271,
    "밥": 3272,
    "밍밍": 3273,
    "믿": 3274,
    "몰": 3275,
    "료": 3276,
    "렵": 3277,
    "렇": 3278,
    "럼": 3279,
    "랫": 3280,
    "똑": 3281,
    "딸": 3282,
    "되": 3283,
    "느덧": 3284,
    "뉴": 3285,
    "눴": 3286,
    "념": 3287,
    "넥타": 3288,
    "냈": 3289,
    "낯은": 3290,
    "뀐": 3291,
    "꿔": 3292,
    "긴": 3293,
    "규": 3294,
    "곱": 3295,
    "골": 3296,
    "高雄": 3297,
    "馬上": 3298,
    "願榮光歸香港": 3299,
    "頼む": 3300,
    "電話": 3301,
    "電視": 3302,
    "離婚": 3303,
    "陆": 3304,
    "長音符": 3305,
    "違う": 3306,
    "逝": 3307,
    "通訳": 3308,
    "逆終わり": 3309,
    "身亡": 3310,
    "足りな": 3311,
    "贰": 3312,
    "貧乏": 3313,
    "謝謝": 3314,
    "読む": 3315,
    "試す": 3316,
    "言う": 3317,
    "萬": 3318,
    "肆": 3319,
    "罵": 3320,
    "終了": 3321,
    "終わり": 3322,
    "紹介": 3323,
    "立刻": 3324,
    "私の趣味は盆栽です。": 3325,
    "神": 3326,
    "發財": 3327,
    "男童軍": 3328,
    "理髪": 3329,
    "理容": 3330,
    "玖": 3331,
    "狗": 3332,
    "片思": 3333,
    "洗臉": 3334,
    "沒有": 3335,
    "江戸川": 3336,
    "水果": 3337,
    "母上": 3338,
    "母": 3339,
    "殂": 3340,
    "柒": 3341,
    "望": 3342,
    "有沒有": 3343,
    "有": 3344,
    "時間": 3345,
    "施設名": 3346,
    "新年快樂": 3347,
    "新": 3348,
    "散髪": 3349,
    "捌": 3350,
    "拾": 3351,
    "手話": 3352,
    "懐かし": 3353,
    "慈愛": 3354,
    "感謝": 3355,
    "愛": 3356,
    "意味": 3357,
    "您好": 3358,
    "恭喜發財": 3359,
    "快樂": 3360,
    "德國": 3361,
    "床屋": 3362,
    "年": 3363,
    "平声": 3364,
    "少な": 3365,
    "寿司": 3366,
    "客廳": 3367,
    "学校": 3368,
    "婚姻": 3369,
    "壹": 3370,
    "四十": 3371,
    "叁": 3372,
    "去声": 3373,
    "千": 3374,
    "出": 3375,
    "入声": 3376,
    "兄弟": 3377,
    "信": 3378,
    "佛": 3379,
    "伍": 3380,
    "仕方な": 3381,
    "五十": 3382,
    "二十": 3383,
    "不": 3384,
    "下子": 3385,
    "上声": 3386,
    "三十": 3387,
    "一會兒": 3388,
    "ー": 3389,
    "ン": 3390,
    "ヲ": 3391,
    "ワ": 3392,
    "ロ": 3393,
    "レ": 3394,
    "ル": 3395,
    "リ": 3396,
    "ラ": 3397,
    "ヨ": 3398,
    "ョ": 3399,
    "ユ": 3400,
    "ュ": 3401,
    "ヤ": 3402,
    "ャ": 3403,
    "メ": 3404,
    "ム": 3405,
    "ミ": 3406,
    "ママ": 3407,
    "マ": 3408,
    "ポ": 3409,
    "ボ": 3410,
    "ホ": 3411,
    "ペ": 3412,
    "プ": 3413,
    "ブ": 3414,
    "フ": 3415,
    "ピ": 3416,
    "ビ": 3417,
    "ヒ": 3418,
    "パンダ": 3419,
    "パ": 3420,
    "バ": 3421,
    "ハ": 3422,
    "ノ": 3423,
    "ネ": 3424,
    "ヌ": 3425,
    "ニ": 3426,
    "ナ": 3427,
    "ド": 3428,
    "ト": 3429,
    "デ": 3430,
    "テ": 3431,
    "ツ": 3432,
    "ッ": 3433,
    "ヂ": 3434,
    "チ": 3435,
    "ダ": 3436,
    "タワーホール船堀": 3437,
    "タベル": 3438,
    "ゾ": 3439,
    "ソ": 3440,
    "ゼ": 3441,
    "セ": 3442,
    "ズ": 3443,
    "ス": 3444,
    "ザ": 3445,
    "サ": 3446,
    "ゴ": 3447,
    "コ": 3448,
    "ゲ": 3449,
    "ケ": 3450,
    "グ": 3451,
    "ク": 3452,
    "ギ": 3453,
    "ガ": 3454,
    "オ": 3455,
    "ォ": 3456,
    "エ": 3457,
    "ェ": 3458,
    "ウ": 3459,
    "ゥ": 3460,
    "イ": 3461,
    "ィ": 3462,
    "ア": 3463,
    "ァ": 3464,
    "゚": 3465,
    "゙": 3466,
    "ん": 3467,
    "を": 3468,
    "わたし": 3469,
    "わ": 3470,
    "ろ": 3471,
    "る": 3472,
    "り": 3473,
    "ら": 3474,
    "よ": 3475,
    "ょ": 3476,
    "ゆ": 3477,
    "ゅ": 3478,
    "やむ得な": 3479,
    "や": 3480,
    "ゃ": 3481,
    "め": 3482,
    "む": 3483,
    "み": 3484,
    "ま": 3485,
    "ぽ": 3486,
    "ぼ": 3487,
    "ほ": 3488,
    "ぺ": 3489,
    "べ": 3490,
    "へ": 3491,
    "ぷ": 3492,
    "ぶ": 3493,
    "ふ": 3494,
    "ぴ": 3495,
    "び": 3496,
    "ひ": 3497,
    "ぱ": 3498,
    "ば": 3499,
    "の": 3500,
    "ね": 3501,
    "ぬ": 3502,
    "に": 3503,
    "な": 3504,
    "ど": 3505,
    "と": 3506,
    "で": 3507,
    "て": 3508,
    "づ": 3509,
    "つ": 3510,
    "っ": 3511,
    "ぢ": 3512,
    "ち": 3513,
    "だ": 3514,
    "たべる": 3515,
    "ぞ": 3516,
    "そ": 3517,
    "ぜ": 3518,
    "せ": 3519,
    "ず": 3520,
    "す": 3521,
    "じゅう": 3522,
    "じかん": 3523,
    "じ": 3524,
    "しろ": 3525,
    "しょうがな": 3526,
    "ざ": 3527,
    "さ": 3528,
    "ご": 3529,
    "こ": 3530,
    "げ": 3531,
    "け": 3532,
    "ぐ": 3533,
    "く": 3534,
    "ぎ": 3535,
    "きょうだ": 3536,
    "がっこう": 3537,
    "が": 3538,
    "かあちゃん": 3539,
    "お願": 3540,
    "お母さん": 3541,
    "おふくろ": 3542,
    "おしま": 3543,
    "お": 3544,
    "ぉ": 3545,
    "え": 3546,
    "ぇ": 3547,
    "う": 3548,
    "ぅ": 3549,
    "ぃ": 3550,
    "ありがとう": 3551,
    "あ": 3552,
    "ぁ": 3553,
    "ⵥ": 3554,
    "ⵣ": 3555,
    "ⵢ": 3556,
    "ⵟ": 3557,
    "ⵞ": 3558,
    "ⵝ": 3559,
    "ⵜ": 3560,
    "ⵛ": 3561,
    "ⵚ": 3562,
    "ⵙ": 3563,
    "ⵖ": 3564,
    "ⵕ": 3565,
    "ⵔ": 3566,
    "ⵓ": 3567,
    "ⵏ": 3568,
    "ⵎ": 3569,
    "ⵍ": 3570,
    "ⵊ": 3571,
    "ⵉ": 3572,
    "ⵇ": 3573,
    "ⵅ": 3574,
    "ⵄ": 3575,
    "ⵃ": 3576,
    "ⵀ": 3577,
    "ⴽ": 3578,
    "ⴼ": 3579,
    "ⴻ": 3580,
    "ⴹ": 3581,
    "ⴸ": 3582,
    "ⴷ": 3583,
    "ⴵ": 3584,
    "ⴳ": 3585,
    "ⴲ": 3586,
    "ⴱ": 3587,
    "ⴰ": 3588,
    "☻": 3589,
    "☺": 3590,
    "◌̈": 3591,
    "△△": 3592,
    "⋃": 3593,
    "⋂": 3594,
    "⋁": 3595,
    "⋀": 3596,
    "⊃": 3597,
    "≥": 3598,
    "≈": 3599,
    "≅": 3600,
    "∴": 3601,
    "∞": 3602,
    "∉": 3603,
    "∈": 3604,
    "∃": 3605,
    "∀": 3606,
    "⇔": 3607,
    "→": 3608,
    "‚": 3609,
    "ẽ": 3610,
    "ẫ": 3611,
    "ẩ": 3612,
    "ẓ": 3613,
    "ṯ": 3614,
    "ṭ": 3615,
    "ṣ": 3616,
    "ṛ": 3617,
    "ḥ": 3618,
    "ḏ": 3619,
    "ḍ": 3620,
    "ጥብቅ": 3621,
    "ጥቁር": 3622,
    "ደሴቶች": 3623,
    "ዩኒቨርሲቲ": 3624,
    "የእግር": 3625,
    "አመሰግናለሁ": 3626,
    "ቀይ": 3627,
    "መብራት": 3628,
    "ᅵ": 3629,
    "ᅴ": 3630,
    "ᅳ": 3631,
    "ᅱ": 3632,
    "ᅰ": 3633,
    "ᅯ": 3634,
    "ᅮ": 3635,
    "ᅭ": 3636,
    "ᅫ": 3637,
    "ᅪ": 3638,
    "ᅩ": 3639,
    "ᅨ": 3640,
    "ᅧ": 3641,
    "ᅦ": 3642,
    "ᅥ": 3643,
    "ᅤ": 3644,
    "ᅣ": 3645,
    "ᅢ": 3646,
    "ᅡ": 3647,
    "ᄑ": 3648,
    "ᄋᄃᄂ": 3649,
    "ᄋᄂᄆᄋ": 3650,
    "ᄅ": 3651,
    "ᄃ": 3652,
    "ᄀ": 3653,
    "အိမ္ထဲေရဝင္": 3654,
    "๙": 3655,
    "๘": 3656,
    "๗": 3657,
    "๖": 3658,
    "๕": 3659,
    "๒": 3660,
    "๑": 3661,
    "๐": 3662,
    "๋": 3663,
    "ๅ": 3664,
    "ฯ": 3665,
    "ฤๅษ": 3666,
    "ฤษ": 3667,
    "ฤศ": 3668,
    "ณฑฆ": 3669,
    "ِ": 3670,
    "ً": 3671,
    "؟": 3672,
    "ר": 3673,
    "ק": 3674,
    "צ": 3675,
    "פ": 3676,
    "ע": 3677,
    "ס": 3678,
    "נ": 3679,
    "מספיק": 3680,
    "מ": 3681,
    "לא": 3682,
    "ל": 3683,
    "כ": 3684,
    "י": 3685,
    "ט": 3686,
    "ברוך": 3687,
    "אתה": 3688,
    "ґ": 3689,
    "Ґ": 3690,
    "є": 3691,
    "щ": 3692,
    "Э": 3693,
    "Ь": 3694,
    "Ы": 3695,
    "Ъ": 3696,
    "Ц": 3697,
    "Т": 3698,
    "Н": 3699,
    "Ї": 3700,
    "Є": 3701,
    "Ё": 3702,
    "χ": 3703,
    "υ": 3704,
    "τ": 3705,
    "π": 3706,
    "ο": 3707,
    "λ": 3708,
    "κ": 3709,
    "ι": 3710,
    "θ": 3711,
    "η": 3712,
    "ε": 3713,
    "δ": 3714,
    "γ": 3715,
    "β": 3716,
    "Ω": 3717,
    "Χ": 3718,
    "Φ": 3719,
    "Υ": 3720,
    "Ρ": 3721,
    "Π": 3722,
    "Μ": 3723,
    "Λ": 3724,
    "Ι": 3725,
    "Θ": 3726,
    "Δ": 3727,
    "Γ": 3728,
    "Β": 3729,
    "Α": 3730,
    "̈": 3731,
    "ɣ": 3732,
    "ɛː": 3733,
    "ɛ": 3734,
    "ǧ": 3735,
    "ǒ": 3736,
    "ǐ": 3737,
    "Ơ": 3738,
    "ţ": 3739,
    "ŝ": 3740,
    "ĵ": 3741,
    "ĥ": 3742,
    "ĝ": 3743,
    "Û": 3744,
    "Ò": 3745,
    "Ï": 3746,
    "®": 3747,
    "§": 3748,
    "~": 3749,
    "<pad3750>": 3750,
    "<pad3751>": 3751
}