{
    "<pad>": 0,
    "<unk>": 1,
    "<s>": 2,
    "</s>": 3,
    ">": 4,
    "▁<": 5,
    "▁<4": 6,
    "▁<2": 7,
    "dict": 8,
    "de": 9,
    "en": 10,
    "br": 11,
    "pt": 12,
    "us": 13,
    ",": 14,
    "▁the": 15,
    ".": 16,
    "sent": 17,
    "ca": 18,
    "fr": 19,
    "▁and": 20,
    "-": 21,
    "s": 22,
    "▁to": 23,
    "▁of": 24,
    "▁Verse": 25,
    "a": 26,
    "n": 27,
    "t": 28,
    "▁you": 29,
    "▁a": 30,
    "ar": 31,
    "o": 32,
    "ing": 33,
    "▁in": 34,
    "ed": 35,
    "er": 36,
    "es": 37,
    "▁I": 38,
    "y": 39,
    "al": 40,
    "▁he": 41,
    "m": 42,
    "i": 43,
    "▁will": 44,
    "or": 45,
    "l": 46,
    "▁S": 47,
    "c": 48,
    "an": 49,
    "'": 50,
    "u": 51,
    "▁m": 52,
    "▁for": 53,
    "e": 54,
    "p": 55,
    "▁that": 56,
    "▁\"": 57,
    "▁p": 58,
    "in": 59,
    "▁be": 60,
    "b": 61,
    "r": 62,
    "▁is": 63,
    "g": 64,
    "on": 65,
    "is": 66,
    "▁c": 67,
    "▁God": 68,
    "re": 69,
    "f": 70,
    "▁s": 71,
    "▁C": 72,
    "it": 73,
    "as": 74,
    "le": 75,
    "at": 76,
    "▁b": 77,
    "_": 78,
    "▁P": 79,
    "▁A": 80,
    "d": 81,
    "▁his": 82,
    "▁f": 83,
    "▁de": 84,
    "el": 85,
    "▁with": 86,
    "ir": 87,
    "▁M": 88,
    "▁l": 89,
    "▁rwth": 90,
    "se": 91,
    "▁B": 92,
    "▁was": 93,
    "▁they": 94,
    "il": 95,
    "▁E": 96,
    "▁": 97,
    "h": 98,
    "▁who": 99,
    "ia": 100,
    "te": 101,
    "v": 102,
    "ro": 103,
    "▁not": 104,
    "k": 105,
    "A": 106,
    "▁him": 107,
    "▁your": 108,
    "▁me": 109,
    "st": 110,
    "▁d": 111,
    "ra": 112,
    "▁G": 113,
    "ur": 114,
    "▁T": 115,
    "▁t": 116,
    "▁have": 117,
    "▁all": 118,
    "▁are": 119,
    "▁g": 120,
    "os": 121,
    "w": 122,
    "▁from": 123,
    "▁them": 124,
    "ol": 125,
    "▁And": 126,
    "z": 127,
    "2": 128,
    "ent": 129,
    "▁it": 130,
    "▁F": 131,
    ":": 132,
    "▁L": 133,
    "▁do": 134,
    "\\": 135,
    "▁re": 136,
    "th": 137,
    "ic": 138,
    "▁Jesus": 139,
    "▁on": 140,
    "é": 141,
    "ch": 142,
    "▁as": 143,
    "am": 144,
    "1": 145,
    "om": 146,
    "▁we": 147,
    "ig": 148,
    "▁w": 149,
    "▁people": 150,
    "O": 151,
    "et": 152,
    "▁H": 153,
    "▁2": 154,
    "I": 155,
    "ter": 156,
    "▁st": 157,
    "3": 158,
    "▁v": 159,
    "un": 160,
    "▁my": 161,
    "▁h": 162,
    "▁R": 163,
    "▁D": 164,
    "▁but": 165,
    "ha": 166,
    ")": 167,
    "5": 168,
    "?": 169,
    "ut": 170,
    "▁He": 171,
    "▁N": 172,
    "4": 173,
    "ve": 174,
    "im": 175,
    "E": 176,
    "ly": 177,
    "▁3": 178,
    "▁this": 179,
    "▁The": 180,
    "um": 181,
    "▁K": 182,
    "▁n": 183,
    "S": 184,
    "der": 185,
    "ão": 186,
    "▁r": 187,
    "▁their": 188,
    "ie": 189,
    ".\"": 190,
    "ion": 191,
    "ot": 192,
    "▁se": 193,
    "he": 194,
    "▁W": 195,
    "!": 196,
    "L": 197,
    "ho": 198,
    "▁J": 199,
    "▁ca": 200,
    "x": 201,
    "6": 202,
    "id": 203,
    "est": 204,
    "▁said": 205,
    "▁an": 206,
    "T": 207,
    "9": 208,
    ";": 209,
    "em": 210,
    "ag": 211,
    "8": 212,
    "▁so": 213,
    "▁But": 214,
    "ce": 215,
    "▁(": 216,
    "ge": 217,
    "▁e": 218,
    "ant": 219,
    "ul": 220,
    "ll": 221,
    "D": 222,
    "ac": 223,
    "▁by": 224,
    "7": 225,
    ".\\": 226,
    "▁man": 227,
    "ou": 228,
    "ver": 229,
    "▁or": 230,
    "▁us": 231,
    "ation": 232,
    "to": 233,
    "▁at": 234,
    "▁were": 235,
    "la": 236,
    "▁what": 237,
    "ad": 238,
    "▁o": 239,
    "R": 240,
    "io": 241,
    "qu": 242,
    "ung": 243,
    "▁one": 244,
    "á": 245,
    "U": 246,
    "▁am": 247,
    "C": 248,
    "ist": 249,
    "▁no": 250,
    "ab": 251,
    "ri": 252,
    "▁had": 253,
    "▁V": 254,
    "▁con": 255,
    "▁O": 256,
    "▁Then": 257,
    "ü": 258,
    "P": 259,
    "▁out": 260,
    "ers": 261,
    "ine": 262,
    "▁LORD": 263,
    "M": 264,
    "ä": 265,
    "ow": 266,
    "ate": 267,
    "í": 268,
    "0": 269,
    "▁ab": 270,
    "▁up": 271,
    "▁when": 272,
    "be": 273,
    "ide": 274,
    "ast": 275,
    "▁if": 276,
    "▁j": 277,
    "▁So": 278,
    "ure": 279,
    "▁know": 280,
    "▁qu": 281,
    "me": 282,
    "▁Lord": 283,
    "▁al": 284,
    "▁go": 285,
    "200": 286,
    "▁For": 287,
    "▁has": 288,
    "and": 289,
    "co": 290,
    "▁there": 291,
    "▁her": 292,
    "▁ex": 293,
    "ip": 294,
    "end": 295,
    "▁sa": 296,
    "▁pro": 297,
    "if": 298,
    "▁4": 299,
    "ne": 300,
    "ct": 301,
    "▁br": 302,
    "one": 303,
    "B": 304,
    "au": 305,
    "▁Pr": 306,
    "N": 307,
    "▁co": 308,
    "]": 309,
    "▁can": 310,
    "▁ro": 311,
    "▁[": 312,
    "ah": 313,
    "▁Christ": 314,
    "▁ver": 315,
    "▁our": 316,
    "ira": 317,
    "ive": 318,
    "pe": 319,
    "▁un": 320,
    "ay": 321,
    "iz": 322,
    "ort": 323,
    "ado": 324,
    "ap": 325,
    "▁ha": 326,
    "ud": 327,
    "ment": 328,
    ">\\": 329,
    "ise": 330,
    "ica": 331,
    "ill": 332,
    "▁sin": 333,
    "▁about": 334,
    "ber": 335,
    "▁--": 336,
    "▁1": 337,
    "▁come": 338,
    "ain": 339,
    "ma": 340,
    "ke": 341,
    "▁those": 342,
    "op": 343,
    "ire": 344,
    "▁k": 345,
    "ug": 346,
    "▁pr": 347,
    "her": 348,
    "che": 349,
    "ess": 350,
    "▁she": 351,
    "ish": 352,
    "ry": 353,
    "oc": 354,
    "W": 355,
    "▁ar": 356,
    "▁They": 357,
    "H": 358,
    "▁because": 359,
    "ies": 360,
    "▁into": 361,
    "do": 362,
    "▁-": 363,
    "so": 364,
    "▁le": 365,
    "ck": 366,
    "nd": 367,
    "our": 368,
    "les": 369,
    "ind": 370,
    "▁per": 371,
    "G": 372,
    "▁king": 373,
    "j": 374,
    "ass": 375,
    "ak": 376,
    "▁like": 377,
    "od": 378,
    "▁give": 379,
    "▁You": 380,
    "up": 381,
    "av": 382,
    "ness": 383,
    "▁es": 384,
    "▁say": 385,
    "▁day": 386,
    "▁good": 387,
    "are": 388,
    "F": 389,
    "▁son": 390,
    "ai": 391,
    "▁sp": 392,
    "ord": 393,
    "lo": 394,
    "▁In": 395,
    "ção": 396,
    "▁en": 397,
    "▁pre": 398,
    "iv": 399,
    "ó": 400,
    "▁Mar": 401,
    "ard": 402,
    "all": 403,
    "ian": 404,
    "▁way": 405,
    "▁over": 406,
    "<": 407,
    "▁person": 408,
    "▁ra": 409,
    "▁gr": 410,
    "▁bo": 411,
    "ens": 412,
    "ina": 413,
    "art": 414,
    "▁tr": 415,
    "▁see": 416,
    "ente": 417,
    "res": 418,
    "▁great": 419,
    "00": 420,
    "!\"": 421,
    "fe": 422,
    "ful": 423,
    "▁things": 424,
    "▁right": 425,
    "ust": 426,
    "▁5": 427,
    "ont": 428,
    "▁tra": 429,
    "▁other": 430,
    "ok": 431,
    "ign": 432,
    "▁love": 433,
    "ier": 434,
    "cer": 435,
    "AR": 436,
    "ight": 437,
    "10": 438,
    "▁time": 439,
    "▁lo": 440,
    "ost": 441,
    "▁even": 442,
    "ach": 443,
    "hr": 444,
    "ite": 445,
    "ice": 446,
    "ub": 447,
    "▁fe": 448,
    "ile": 449,
    "▁cl": 450,
    "sed": 451,
    "ss": 452,
    "sp": 453,
    "▁gra": 454,
    "?\"": 455,
    "▁When": 456,
    "iah": 457,
    "ble": 458,
    "▁Be": 459,
    "iro": 460,
    "▁heaven": 461,
    "▁earth": 462,
    "▁'": 463,
    "ze": 464,
    "ran": 465,
    "▁let": 466,
    "sc": 467,
    "▁th": 468,
    "▁shall": 469,
    "▁life": 470,
    "▁now": 471,
    "▁been": 472,
    "ved": 473,
    "▁down": 474,
    "▁pl": 475,
    "und": 476,
    "ep": 477,
    "▁than": 478,
    "ru": 479,
    "▁tell": 480,
    "ação": 481,
    "▁don": 482,
    "▁com": 483,
    "V": 484,
    "▁name": 485,
    "▁came": 486,
    "▁these": 487,
    "sch": 488,
    "▁law": 489,
    "▁An": 490,
    "▁car": 491,
    "ue": 492,
    "▁then": 493,
    "ult": 494,
    "▁before": 495,
    "▁own": 496,
    "red": 497,
    "▁went": 498,
    "▁mar": 499,
    "har": 500,
    "201": 501,
    "▁SC": 502,
    "▁how": 503,
    "▁also": 504,
    "▁must": 505,
    "▁Z": 506,
    "nt": 507,
    "ib": 508,
    "fer": 509,
    ":1": 510,
    "ual": 511,
    "▁some": 512,
    "▁par": 513,
    "▁men": 514,
    "▁faith": 515,
    "ings": 516,
    "▁fa": 517,
    "po": 518,
    "▁every": 519,
    "▁Ar": 520,
    "▁ne": 521,
    "ê": 522,
    "ico": 523,
    "ais": 524,
    "▁through": 525,
    "led": 526,
    "▁Al": 527,
    "▁em": 528,
    "▁work": 529,
    "hen": 530,
    "gu": 531,
    "▁¶": 532,
    "ça": 533,
    "per": 534,
    "ded": 535,
    "▁sent": 536,
    "▁more": 537,
    "▁Sch": 538,
    "▁CM": 539,
    "ious": 540,
    "▁est": 541,
    "▁St": 542,
    "we": 543,
    "ix": 544,
    "▁want": 545,
    ",\"": 546,
    "rit": 547,
    "▁many": 548,
    "ath": 549,
    "▁away": 550,
    "han": 551,
    "▁ad": 552,
    "▁sha": 553,
    "▁look": 554,
    "▁world": 555,
    "row": 556,
    "mer": 557,
    "\"": 558,
    "▁não": 559,
    "▁MEL": 560,
    "▁mo": 561,
    "▁U": 562,
    "ven": 563,
    "▁des": 564,
    "use": 565,
    "az": 566,
    "▁same": 567,
    "idade": 568,
    "ome": 569,
    "▁fl": 570,
    "pl": 571,
    "ten": 572,
    "▁rep": 573,
    "▁again": 574,
    "ö": 575,
    "▁only": 576,
    "▁2.": 577,
    "int": 578,
    "ick": 579,
    "ere": 580,
    "▁fr": 581,
    "ik": 582,
    "▁3.": 583,
    "▁just": 584,
    "▁would": 585,
    "▁po": 586,
    "▁Re": 587,
    "ity": 588,
    "bo": 589,
    "▁é": 590,
    "▁any": 591,
    "▁4.": 592,
    "AN": 593,
    "▁told": 594,
    "▁Israel": 595,
    "▁ent": 596,
    "ore": 597,
    "men": 598,
    "▁should": 599,
    "▁saw": 600,
    "▁We": 601,
    "og": 602,
    "▁da": 603,
    "▁Spirit": 604,
    "▁made": 605,
    "va": 606,
    "▁heart": 607,
    "▁evil": 608,
    "▁back": 609,
    "▁As": 610,
    "▁Le": 611,
    "ria": 612,
    "old": 613,
    "ER": 614,
    "da": 615,
    "age": 616,
    "▁ter": 617,
    "ase": 618,
    "▁6.": 619,
    "▁5.": 620,
    "▁hand": 621,
    "orn": 622,
    "▁eat": 623,
    "▁which": 624,
    "▁unto": 625,
    "▁make": 626,
    "ress": 627,
    "ner": 628,
    "cl": 629,
    "▁z": 630,
    "▁res": 631,
    "▁8.": 632,
    "▁sign": 633,
    "▁dis": 634,
    "ff": 635,
    "▁two": 636,
    "▁7.": 637,
    "du": 638,
    "(": 639,
    "ß": 640,
    "pp": 641,
    "▁understand": 642,
    "ade": 643,
    "▁against": 644,
    "▁9.": 645,
    "ien": 646,
    "▁did": 647,
    "ert": 648,
    "▁sh": 649,
    "iss": 650,
    "▁never": 651,
    "gen": 652,
    "gar": 653,
    "▁Son": 654,
    "▁10.": 655,
    "/": 656,
    "▁live": 657,
    "ç": 658,
    "▁bl": 659,
    "▁11.": 660,
    "cha": 661,
    "▁house": 662,
    "è": 663,
    "▁ele": 664,
    "▁children": 665,
    "▁asked": 666,
    "▁12.": 667,
    "▁te": 668,
    "▁pessoa": 669,
    "▁left": 670,
    "▁ac": 671,
    "here": 672,
    "▁father": 673,
    "▁long": 674,
    "ors": 675,
    "▁sinal": 676,
    "▁Father": 677,
    "ial": 678,
    "▁after": 679,
    "▁Paul": 680,
    "ock": 681,
    "man": 682,
    "The": 683,
    "▁13.": 684,
    "ty": 685,
    "▁where": 686,
    "ich": 687,
    "cre": 688,
    "ance": 689,
    "▁comp": 690,
    "▁It": 691,
    "iel": 692,
    "▁called": 693,
    "▁This": 694,
    "▁6": 695,
    "▁disciples": 696,
    "▁Ab": 697,
    "ound": 698,
    "ous": 699,
    "ans": 700,
    "▁14.": 701,
    "ward": 702,
    "▁replied": 703,
    "▁first": 704,
    "ger": 705,
    "▁cor": 706,
    "▁here": 707,
    "ves": 708,
    "ura": 709,
    "que": 710,
    "able": 711,
    "▁turn": 712,
    "▁follow": 713,
    "▁Chapter": 714,
    "ida": 715,
    "eb": 716,
    "cia": 717,
    "▁ap": 718,
    "▁ag": 719,
    "mo": 720,
    "ars": 721,
    "▁help": 722,
    "▁heard": 723,
    "▁cont": 724,
    "▁If": 725,
    "ft": 726,
    "ew": 727,
    "AS": 728,
    "▁De": 729,
    "▁rem": 730,
    "ence": 731,
    "icht": 732,
    "▁que": 733,
    "ond": 734,
    "▁pray": 735,
    "den": 736,
    "▁thou": 737,
    "ern": 738,
    "▁pe": 739,
    "▁Se": 740,
    "▁Deus": 741,
    ":2": 742,
    "vo": 743,
    "out": 744,
    "ons": 745,
    "▁wicked": 746,
    "▁land": 747,
    "▁She": 748,
    "jo": 749,
    "▁15.": 750,
    "▁el": 751,
    "▁could": 752,
    "▁power": 753,
    "ts": 754,
    "J": 755,
    "▁Sign": 756,
    "▁Lu": 757,
    ".'": 758,
    "▁ol": 759,
    "▁beg": 760,
    "▁Ad": 761,
    "ú": 762,
    "▁take": 763,
    "chen": 764,
    "(2)": 765,
    "▁li": 766,
    "▁gave": 767,
    "▁each": 768,
    "▁Ver": 769,
    "ana": 770,
    "▁get": 771,
    "▁dead": 772,
    "ong": 773,
    "▁ye": 774,
    "▁Y": 775,
    "ild": 776,
    "ara": 777,
    "vel": 778,
    "uf": 779,
    "▁im": 780,
    "▁No": 781,
    "ised": 782,
    "ima": 783,
    "▁put": 784,
    "▁para": 785,
    "▁become": 786,
    "▁Jerusalem": 787,
    "thing": 788,
    "▁servant": 789,
    "mb": 790,
    "▁stand": 791,
    "▁sch": 792,
    "ren": 793,
    "You": 794,
    "▁truth": 795,
    "▁everything": 796,
    "▁16.": 797,
    "▁conf": 798,
    "OS": 799,
    "▁thy": 800,
    "▁bring": 801,
    "â": 802,
    "▁acc": 803,
    "(1)": 804,
    "ake": 805,
    "▁speak": 806,
    "▁Q": 807,
    "▁19": 808,
    "▁set": 809,
    "let": 810,
    "AL": 811,
    "▁woman": 812,
    "▁col": 813,
    "▁city": 814,
    "ias": 815,
    "ada": 816,
    "▁wise": 817,
    "▁given": 818,
    "▁17.": 819,
    "ito": 820,
    "▁tre": 821,
    "▁pass": 822,
    "▁destroy": 823,
    "▁ch": 824,
    "ally": 825,
    "ES": 826,
    "▁years": 827,
    "▁teach": 828,
    "▁righteous": 829,
    "inho": 830,
    "go": 831,
    "▁sw": 832,
    "▁days": 833,
    "▁Jo": 834,
    "▁among": 835,
    "▁na": 836,
    "itt": 837,
    "ift": 838,
    "▁ser": 839,
    "▁everyone": 840,
    "uch": 841,
    "rar": 842,
    "ora": 843,
    "ato": 844,
    "▁place": 845,
    "▁liv": 846,
    "hes": 847,
    "▁spirit": 848,
    "ste": 849,
    "ater": 850,
    "20": 851,
    "▁won": 852,
    "▁others": 853,
    "▁comm": 854,
    "▁anyone": 855,
    "hy": 856,
    "ations": 857,
    "IS": 858,
    "▁ple": 859,
    "▁18.": 860,
    "▁words": 861,
    "▁gl": 862,
    "par": 863,
    "car": 864,
    "arm": 865,
    "▁tem": 866,
    "ree": 867,
    "lich": 868,
    "▁happen": 869,
    "ieren": 870,
    "hed": 871,
    "▁why": 872,
    "▁very": 873,
    "▁head": 874,
    "tar": 875,
    "nIf": 876,
    "gra": 877,
    "▁hear": 878,
    "▁cho": 879,
    "▁ask": 880,
    "cul": 881,
    "▁wor": 882,
    "▁show": 883,
    "▁part": 884,
    "▁Peter": 885,
    "▁7": 886,
    "of": 887,
    "ng": 888,
    "af": 889,
    "oss": 890,
    "▁light": 891,
    "▁8": 892,
    "▁think": 893,
    "▁new": 894,
    "▁agent": 895,
    "▁Me": 896,
    "RI": 897,
    "▁inter": 898,
    "kt": 899,
    "▁old": 900,
    "▁mas": 901,
    "▁himself": 902,
    "▁app": 903,
    "no": 904,
    "ds": 905,
    "▁Man": 906,
    "self": 907,
    "ps": 908,
    "ific": 909,
    "▁Th": 910,
    "ins": 911,
    "Y": 912,
    "▁esc": 913,
    "▁brothers": 914,
    "▁El": 915,
    "▁took": 916,
    "▁end": 917,
    "▁att": 918,
    "ime": 919,
    "read": 920,
    "oun": 921,
    "dic": 922,
    "▁vis": 923,
    "▁sal": 924,
    "▁mother": 925,
    "▁dec": 926,
    "▁Her": 927,
    "▁inst": 928,
    "▁honor": 929,
    "▁bu": 930,
    "isch": 931,
    "▁glory": 932,
    "▁Let": 933,
    "▁John": 934,
    "▁19.": 935,
    "ked": 936,
    "ied": 937,
    "ene": 938,
    "IN": 939,
    "▁ref": 940,
    "▁home": 941,
    "▁ang": 942,
    "▁sur": 943,
    "▁nós": 944,
    "▁its": 945,
    "ante": 946,
    "▁fil": 947,
    "ple": 948,
    "▁three": 949,
    "▁resp": 950,
    "▁por": 951,
    "ME": 952,
    "▁death": 953,
    "▁sup": 954,
    "inha": 955,
    "▁sins": 956,
    "▁fool": 957,
    "▁er": 958,
    "▁believe": 959,
    "ras": 960,
    "ht": 961,
    "hat": 962,
    "ely": 963,
    "quer": 964,
    "ivo": 965,
    "iar": 966,
    "AD": 967,
    "▁prom": 968,
    "▁20.": 969,
    "ters": 970,
    "hl": 971,
    "▁done": 972,
    "▁ass": 973,
    "▁Is": 974,
    "▁Abraham": 975,
    "ction": 976,
    "▁upon": 977,
    "▁um": 978,
    "▁holy": 979,
    "▁fall": 980,
    "▁There": 981,
    "▁Am": 982,
    "ux": 983,
    "ders": 984,
    "▁reg": 985,
    "▁bar": 986,
    "▁Te": 987,
    "sa": 988,
    "ack": 989,
    "▁wife": 990,
    "▁fra": 991,
    "▁UF": 992,
    "ever": 993,
    "bl": 994,
    "01": 995,
    "▁wat": 996,
    "▁off": 997,
    "ning": 998,
    "cher": 999,
    "ang": 1000,
    "9.": 1001,
    "▁god": 1002,
    "▁fal": 1003,
    "▁dé": 1004,
    "ried": 1005,
    "imento": 1006,
    "ador": 1007,
    "pre": 1008,
    "ize": 1009,
    "fl": 1010,
    "▁bre": 1011,
    "tern": 1012,
    "ale": 1013,
    "▁water": 1014,
    "▁until": 1015,
    "▁another": 1016,
    "▁Temple": 1017,
    "udar": 1018,
    "sel": 1019,
    "for": 1020,
    "▁together": 1021,
    "▁living": 1022,
    "▁kn": 1023,
    "▁anim": 1024,
    "iver": 1025,
    "form": 1026,
    "▁sem": 1027,
    "▁saying": 1028,
    "▁obey": 1029,
    "▁kind": 1030,
    "▁keep": 1031,
    "▁gu": 1032,
    "▁ear": 1033,
    "▁cur": 1034,
    "▁command": 1035,
    "▁brought": 1036,
    "▁Holy": 1037,
    "ela": 1038,
    ".<": 1039,
    "▁offer": 1040,
    "▁nothing": 1041,
    "▁night": 1042,
    "▁body": 1043,
    "▁rest": 1044,
    "▁need": 1045,
    "▁listen": 1046,
    "▁find": 1047,
    "▁cle": 1048,
    "ua": 1049,
    "na": 1050,
    "eth": 1051,
    "ait": 1052,
    "▁ins": 1053,
    "▁21.": 1054,
    "IA": 1055,
    "▁message": 1056,
    "▁eu": 1057,
    "este": 1058,
    "att": 1059,
    "0.": 1060,
    "▁send": 1061,
    "▁plan": 1062,
    "▁nome": 1063,
    "▁dire": 1064,
    "ês": 1065,
    "bre": 1066,
    "EL": 1067,
    "▁dem": 1068,
    "▁Now": 1069,
    "zen": 1070,
    "1.": 1071,
    "▁friend": 1072,
    "▁Libras": 1073,
    "rer": 1074,
    "ob": 1075,
    "inar": 1076,
    "aid": 1077,
    "▁mor": 1078,
    "▁jo": 1079,
    "▁ir": 1080,
    "▁does": 1081,
    "▁che": 1082,
    "▁Pro": 1083,
    "▁At": 1084,
    "arn": 1085,
    "als": 1086,
    "OR": 1087,
    "▁thee": 1088,
    "▁face": 1089,
    "▁Jews": 1090,
    "▁9": 1091,
    "oup": 1092,
    "ough": 1093,
    "ido": 1094,
    "ged": 1095,
    "▁test": 1096,
    "▁says": 1097,
    "▁lead": 1098,
    "▁la": 1099,
    "ove": 1100,
    "▁wisdom": 1101,
    "▁much": 1102,
    "ude": 1103,
    "son": 1104,
    "less": 1105,
    "ino": 1106,
    "ember": 1107,
    "aca": 1108,
    "▁gre": 1109,
    "▁die": 1110,
    "▁cha": 1111,
    "sy": 1112,
    "reat": 1113,
    "ions": 1114,
    "ather": 1115,
    "RO": 1116,
    "▁while": 1117,
    "▁too": 1118,
    "▁call": 1119,
    "▁Un": 1120,
    "▁Proverbs": 1121,
    "oud": 1122,
    "itar": 1123,
    "aut": 1124,
    "ame": 1125,
    "▁prophe": 1126,
    "▁cro": 1127,
    "ood": 1128,
    "ient": 1129,
    "▁without": 1130,
    "▁walk": 1131,
    "▁someone": 1132,
    "▁sil": 1133,
    "▁Don": 1134,
    "▁writ": 1135,
    "▁tw": 1136,
    "▁strong": 1137,
    "▁ob": 1138,
    "▁mouth": 1139,
    "▁found": 1140,
    "▁eyes": 1141,
    "ph": 1142,
    "pect": 1143,
    "lic": 1144,
    "▁seven": 1145,
    "▁desc": 1146,
    "000": 1147,
    "▁dia": 1148,
    "2.": 1149,
    "▁high": 1150,
    "▁food": 1151,
    "▁fire": 1152,
    "▁ban": 1153,
    "▁22.": 1154,
    "ã": 1155,
    "urn": 1156,
    "ace": 1157,
    "IL": 1158,
    "▁sor": 1159,
    "▁meet": 1160,
    "oura": 1161,
    "min": 1162,
    "ject": 1163,
    "com": 1164,
    "ared": 1165,
    "He": 1166,
    "▁peace": 1167,
    "▁money": 1168,
    "▁far": 1169,
    "▁exp": 1170,
    "▁began": 1171,
    "▁Car": 1172,
    "pr": 1173,
    "hn": 1174,
    "aled": 1175,
    "agem": 1176,
    "▁worship": 1177,
    "▁sla": 1178,
    "▁read": 1179,
    "▁hands": 1180,
    "▁*": 1181,
    "nS": 1182,
    "igh": 1183,
    "TO": 1184,
    "▁may": 1185,
    "▁int": 1186,
    "▁enc": 1187,
    "▁dif": 1188,
    "à": 1189,
    "ior": 1190,
    "za": 1191,
    "vers": 1192,
    "ought": 1193,
    "EN": 1194,
    "▁também": 1195,
    "▁word": 1196,
    "▁ste": 1197,
    "▁enter": 1198,
    "▁drink": 1199,
    "day": 1200,
    "▁har": 1201,
    "▁18": 1202,
    "▁poor": 1203,
    "▁bet": 1204,
    "ink": 1205,
    "gua": 1206,
    "▁nor": 1207,
    "▁giv": 1208,
    "▁fin": 1209,
    "▁Phil": 1210,
    "rie": 1211,
    "▁open": 1212,
    "▁div": 1213,
    "▁cir": 1214,
    "▁brother": 1215,
    "▁always": 1216,
    "thy": 1217,
    "K": 1218,
    "▁little": 1219,
    "▁23.": 1220,
    "▁10": 1221,
    "ull": 1222,
    "▁sm": 1223,
    "▁sc": 1224,
    "▁sat": 1225,
    "▁priests": 1226,
    "▁joy": 1227,
    "▁crowd": 1228,
    "▁care": 1229,
    "▁around": 1230,
    "▁angel": 1231,
    "▁Bo": 1232,
    "är": 1233,
    "ÃO": 1234,
    "ute": 1235,
    "ken": 1236,
    "ique": 1237,
    "fa": 1238,
    "ben": 1239,
    "▁fo": 1240,
    "▁Ze": 1241,
    "▁12": 1242,
    "ô": 1243,
    "ologia": 1244,
    "lt": 1245,
    "ites": 1246,
    "▁well": 1247,
    "▁sy": 1248,
    "▁bir": 1249,
    "▁answer": 1250,
    "igo": 1251,
    "▁under": 1252,
    "▁ou": 1253,
    "▁family": 1254,
    "▁enem": 1255,
    "▁child": 1256,
    "▁ce": 1257,
    "▁bless": 1258,
    "▁Sam": 1259,
    "ja": 1260,
    "cest": 1261,
    "ated": 1262,
    "▁trou": 1263,
    "▁pal": 1264,
    "▁kill": 1265,
    "▁Fra": 1266,
    "land": 1267,
    "iva": 1268,
    "inc": 1269,
    "▁clo": 1270,
    "▁His": 1271,
    "▁GLOSSÁRIO": 1272,
    "ço": 1273,
    "uss": 1274,
    "riting": 1275,
    "ola": 1276,
    "ista": 1277,
    "ement": 1278,
    "▁spe": 1279,
    "▁fac": 1280,
    "▁coming": 1281,
    "▁Est": 1282,
    "ör": 1283,
    "ule": 1284,
    "ote": 1285,
    "mp": 1286,
    "dos": 1287,
    "bel": 1288,
    "ba": 1289,
    "3.": 1290,
    "▁ge": 1291,
    "▁arm": 1292,
    "▁On": 1293,
    "ür": 1294,
    "Ç": 1295,
    "var": 1296,
    "right": 1297,
    "ince": 1298,
    "iana": 1299,
    "ents": 1300,
    "dom": 1301,
    "▁true": 1302,
    "▁inv": 1303,
    "▁believers": 1304,
    "▁bad": 1305,
    "▁David": 1306,
    "▁24.": 1307,
    "oke": 1308,
    "nen": 1309,
    "ison": 1310,
    "ham": 1311,
    "dução": 1312,
    "des": 1313,
    "▁sisters": 1314,
    "▁id": 1315,
    "▁That": 1316,
    "▁Sp": 1317,
    "▁Do": 1318,
    "▁Con": 1319,
    "oso": 1320,
    "nW": 1321,
    "mar": 1322,
    "left": 1323,
    "imo": 1324,
    "entro": 1325,
    "▁talk": 1326,
    "▁four": 1327,
    "▁Ol": 1328,
    "▁Moses": 1329,
    "vor": 1330,
    "now": 1331,
    "X": 1332,
    "But": 1333,
    "▁still": 1334,
    "▁stay": 1335,
    "▁return": 1336,
    "▁pat": 1337,
    "▁near": 1338,
    "▁gold": 1339,
    "▁arri": 1340,
    "ying": 1341,
    "ivers": 1342,
    "hose": 1343,
    "fen": 1344,
    "▁y": 1345,
    "▁rel": 1346,
    "▁fut": 1347,
    "▁crow": 1348,
    "▁char": 1349,
    "▁What": 1350,
    "▁Maria": 1351,
    "▁Kingdom": 1352,
    "TE": 1353,
    "▁pres": 1354,
    "▁belong": 1355,
    "▁25.": 1356,
    "leep": 1357,
    "ible": 1358,
    "ave": 1359,
    "ane": 1360,
    "And": 1361,
    "▁sl": 1362,
    "▁sit": 1363,
    "▁might": 1364,
    "▁full": 1365,
    "▁belie": 1366,
    "▁13": 1367,
    "inais": 1368,
    "iet": 1369,
    "con": 1370,
    "bs": 1371,
    "air": 1372,
    "ago": 1373,
    "▁mat": 1374,
    "▁fear": 1375,
    "▁authority": 1376,
    "▁accept": 1377,
    "▁One": 1378,
    "ther": 1379,
    "ita": 1380,
    "▁vo": 1381,
    "▁ve": 1382,
    "▁such": 1383,
    "▁sho": 1384,
    "▁sacr": 1385,
    "▁receive": 1386,
    "▁hard": 1387,
    "▁av": 1388,
    "aven": 1389,
    "▁young": 1390,
    "▁wrong": 1391,
    "▁tak": 1392,
    "▁suffer": 1393,
    "▁ever": 1394,
    "▁Good": 1395,
    "▁All": 1396,
    "ruction": 1397,
    "ished": 1398,
    "Z": 1399,
    "▁shout": 1400,
    "▁seed": 1401,
    "▁cause": 1402,
    "own": 1403,
    "je": 1404,
    "ião": 1405,
    "amb": 1406,
    "▁vocês": 1407,
    "▁swe": 1408,
    "▁prof": 1409,
    "▁AS": 1410,
    "ência": 1411,
    "ário": 1412,
    "ized": 1413,
    "▁tri": 1414,
    "▁preach": 1415,
    "▁mer": 1416,
    "▁ma": 1417,
    "▁human": 1418,
    "▁forg": 1419,
    "▁dist": 1420,
    "▁Fe": 1421,
    "▁14": 1422,
    "ump": 1423,
    "cy": 1424,
    "cial": 1425,
    "ches": 1426,
    "▁though": 1427,
    "▁sub": 1428,
    "▁sim": 1429,
    "▁pun": 1430,
    "▁dev": 1431,
    "▁cr": 1432,
    "▁bur": 1433,
    "▁Ne": 1434,
    "▁King": 1435,
    "uc": 1436,
    "jet": 1437,
    "ith": 1438,
    "icar": 1439,
    "gue": 1440,
    "dade": 1441,
    "bal": 1442,
    "▁wit": 1443,
    "▁soon": 1444,
    "▁pra": 1445,
    "▁poss": 1446,
    "▁porque": 1447,
    "▁grace": 1448,
    "▁church": 1449,
    "▁being": 1450,
    "▁My": 1451,
    "▁Br": 1452,
    "ín": 1453,
    "ér": 1454,
    "ulo": 1455,
    "selves": 1456,
    "ismo": 1457,
    "▁soul": 1458,
    "▁imp": 1459,
    "▁feet": 1460,
    "▁express": 1461,
    "▁didn": 1462,
    "▁comes": 1463,
    "▁both": 1464,
    "▁Lo": 1465,
    "ular": 1466,
    "uel": 1467,
    "ta": 1468,
    "laim": 1469,
    "fore": 1470,
    "ash": 1471,
    "anguage": 1472,
    "4.": 1473,
    "▁town": 1474,
    "▁throw": 1475,
    "▁thir": 1476,
    "▁offic": 1477,
    "▁nam": 1478,
    "▁count": 1479,
    "▁Par": 1480,
    "É": 1481,
    "vore": 1482,
    "ungs": 1483,
    "rio": 1484,
    "ory": 1485,
    "med": 1486,
    "illed": 1487,
    "hão": 1488,
    "ager": 1489,
    "ON": 1490,
    "▁wine": 1491,
    "▁forever": 1492,
    "▁doing": 1493,
    "▁died": 1494,
    "▁cour": 1495,
    "▁better": 1496,
    "▁Scriptures": 1497,
    "▁News": 1498,
    "imon": 1499,
    "ified": 1500,
    "RA": 1501,
    "▁trans": 1502,
    "▁relig": 1503,
    "▁real": 1504,
    "▁min": 1505,
    "▁lives": 1506,
    "▁dark": 1507,
    "▁Daniel": 1508,
    "▁Com": 1509,
    "▁Bar": 1510,
    "▁26.": 1511,
    "▁11": 1512,
    "ives": 1513,
    "ict": 1514,
    "bro": 1515,
    "asse": 1516,
    "▁ten": 1517,
    "▁sec": 1518,
    "▁next": 1519,
    "▁mon": 1520,
    "▁going": 1521,
    "▁finish": 1522,
    "▁daugh": 1523,
    "▁cannot": 1524,
    "▁27.": 1525,
    "▁16": 1526,
    "▁0": 1527,
    "ée": 1528,
    "upo": 1529,
    "ray": 1530,
    "ks": 1531,
    "ingu": 1532,
    "esch": 1533,
    "dem": 1534,
    "▁whole": 1535,
    "▁learn": 1536,
    "▁bapt": 1537,
    "▁17": 1538,
    "xo": 1539,
    "rom": 1540,
    "mel": 1541,
    "ley": 1542,
    "imagem": 1543,
    "cht": 1544,
    "cept": 1545,
    "▁sons": 1546,
    "▁last": 1547,
    "▁ke": 1548,
    "▁fruit": 1549,
    "▁Judah": 1550,
    "▁Ge": 1551,
    "ton": 1552,
    "iter": 1553,
    "isar": 1554,
    "ilho": 1555,
    "bar": 1556,
    "aus": 1557,
    "5.": 1558,
    "▁pur": 1559,
    "▁hor": 1560,
    "▁apost": 1561,
    "▁along": 1562,
    "sen": 1563,
    "olo": 1564,
    "amp": 1565,
    ":3": 1566,
    "▁wom": 1567,
    "▁themselves": 1568,
    "▁hom": 1569,
    "▁Sil": 1570,
    "xt": 1571,
    "vern": 1572,
    "ité": 1573,
    "abb": 1574,
    "Th": 1575,
    "▁voice": 1576,
    "▁prov": 1577,
    "▁opp": 1578,
    "▁later": 1579,
    "▁lar": 1580,
    "▁gener": 1581,
    "▁Fl": 1582,
    "▁whom": 1583,
    "▁thing": 1584,
    "▁judgment": 1585,
    "▁appe": 1586,
    "▁Gentiles": 1587,
    "zer": 1588,
    "xto": 1589,
    "ler": 1590,
    "MD": 1591,
    "11": 1592,
    "▁auf": 1593,
    "▁Phar": 1594,
    "uz": 1595,
    "ountain": 1596,
    "ij": 1597,
    "gy": 1598,
    "cess": 1599,
    "▁surdo": 1600,
    "▁pesso": 1601,
    "▁Ma": 1602,
    "wer": 1603,
    "uito": 1604,
    "ledge": 1605,
    "hold": 1606,
    "gel": 1607,
    "VF": 1608,
    "VC": 1609,
    "▁yet": 1610,
    "▁wall": 1611,
    "▁trust": 1612,
    "▁teacher": 1613,
    "▁próprio": 1614,
    "▁praise": 1615,
    "▁mean": 1616,
    "▁hope": 1617,
    "▁etern": 1618,
    "▁dear": 1619,
    "▁bread": 1620,
    "ille": 1621,
    "bra": 1622,
    "What": 1623,
    "104": 1624,
    "▁rece": 1625,
    "▁means": 1626,
    "▁fiel": 1627,
    "▁dar": 1628,
    "▁blood": 1629,
    "▁Mess": 1630,
    "▁Gal": 1631,
    "ição": 1632,
    "aby": 1633,
    "IC": 1634,
    "▁plant": 1635,
    "▁cat": 1636,
    "▁action": 1637,
    "▁After": 1638,
    "ush": 1639,
    "uar": 1640,
    "ition": 1641,
    "ience": 1642,
    "iat": 1643,
    "ando": 1644,
    "50": 1645,
    "109": 1646,
    "106": 1647,
    "103": 1648,
    "▁stop": 1649,
    "▁rich": 1650,
    "▁nat": 1651,
    "▁Mo": 1652,
    "stead": 1653,
    "elle": 1654,
    "amento": 1655,
    "INA": 1656,
    "2007": 1657,
    "▁tree": 1658,
    "▁sick": 1659,
    "▁met": 1660,
    "▁import": 1661,
    "▁gone": 1662,
    "▁fell": 1663,
    "▁born": 1664,
    "▁adv": 1665,
    "▁Er": 1666,
    "▁28.": 1667,
    "Á": 1668,
    "ula": 1669,
    "ividade": 1670,
    "ips": 1671,
    "ined": 1672,
    "ief": 1673,
    "head": 1674,
    "6.": 1675,
    "108": 1676,
    "▁seen": 1677,
    "▁ré": 1678,
    "▁husband": 1679,
    "▁filled": 1680,
    "▁Mor": 1681,
    "PO": 1682,
    "▁written": 1683,
    "▁wh": 1684,
    "▁use": 1685,
    "▁returned": 1686,
    "▁fore": 1687,
    "▁aw": 1688,
    "▁Jewish": 1689,
    "▁Ap": 1690,
    "ving": 1691,
    "vest": 1692,
    "ila": 1693,
    "dle": 1694,
    "bras": 1695,
    "107": 1696,
    "▁wind": 1697,
    "▁leaders": 1698,
    "▁jud": 1699,
    "▁guard": 1700,
    "▁fre": 1701,
    "▁corre": 1702,
    "▁amar": 1703,
    "▁Sinal": 1704,
    "pa": 1705,
    "ling": 1706,
    "ines": 1707,
    "ander": 1708,
    "MA": 1709,
    "14": 1710,
    "▁sun": 1711,
    "▁rul": 1712,
    "▁morning": 1713,
    "▁leave": 1714,
    "▁hearts": 1715,
    "▁hath": 1716,
    "▁desp": 1717,
    "▁clot": 1718,
    "▁bow": 1719,
    "▁angels": 1720,
    "▁afr": 1721,
    "▁15": 1722,
    "uer": 1723,
    "the": 1724,
    "ros": 1725,
    "rol": 1726,
    "hren": 1727,
    "gr": 1728,
    "cle": 1729,
    "▁pare": 1730,
    "▁ed": 1731,
    "▁aut": 1732,
    "▁Pe": 1733,
    "▁En": 1734,
    "át": 1735,
    "zar": 1736,
    "urt": 1737,
    "lly": 1738,
    "ional": 1739,
    "EI": 1740,
    "▁ta": 1741,
    "▁since": 1742,
    "▁prophets": 1743,
    "▁mercy": 1744,
    "▁letras": 1745,
    "▁hon": 1746,
    "▁gat": 1747,
    "▁ev": 1748,
    "▁dra": 1749,
    "▁continue": 1750,
    "▁comple": 1751,
    "▁Your": 1752,
    "▁Sant": 1753,
    "▁20": 1754,
    "rength": 1755,
    "ned": 1756,
    "ived": 1757,
    "fo": 1758,
    "ete": 1759,
    "aul": 1760,
    "7.": 1761,
    "▁sk": 1762,
    "▁dan": 1763,
    "ôn": 1764,
    "uro": 1765,
    "side": 1766,
    "phe": 1767,
    "llen": 1768,
    "cal": 1769,
    "TA": 1770,
    "8.": 1771,
    "▁hum": 1772,
    "q": 1773,
    "▁priest": 1774,
    "▁contin": 1775,
    "very": 1776,
    "▁pri": 1777,
    "▁fam": 1778,
    "▁beca": 1779,
    "▁ey": 1780,
    "▁cal": 1781,
    "▁thr": 1782,
    "ount": 1783,
    "▁disc": 1784,
    "▁sou": 1785,
    "ém": 1786,
    "llow": 1787,
    "▁voc": 1788,
    "esso": 1789,
    "inal": 1790,
    "aug": 1791,
    "=": 1792,
    "Q": 1793,
    "▁ho": 1794,
    "If": 1795,
    "*": 1796,
    "angu": 1797,
    "▁discip": 1798,
    "+": 1799,
    "way": 1800,
    "olog": 1801,
    "ld": 1802,
    "ento": 1803,
    "▁happ": 1804,
    "▁dr": 1805,
    "▁ba": 1806,
    "come": 1807,
    "get": 1808,
    "Ó": 1809,
    "▁sis": 1810,
    "▁dest": 1811,
    "pen": 1812,
    "ily": 1813,
    "▁bod": 1814,
    "▁Jud": 1815,
    "erson": 1816,
    "uit": 1817,
    "@": 1818,
    "eter": 1819,
    "ures": 1820,
    "irst": 1821,
    "õ": 1822,
    "▁lea": 1823,
    "other": 1824,
    "▁serv": 1825,
    "ship": 1826,
    "ife": 1827,
    "▁pla": 1828,
    "▁mess": 1829,
    "Ê": 1830,
    "▁ret": 1831,
    "▁list": 1832,
    "sh": 1833,
    "lood": 1834,
    "ibras": 1835,
    "acher": 1836,
    "ên": 1837,
    "ower": 1838,
    "ople": 1839,
    "▁hel": 1840,
    "▁Dan": 1841,
    "&": 1842,
    "’": 1843,
    "stand": 1844,
    "cr": 1845,
    "▁gen": 1846,
    "wn": 1847,
    "î": 1848,
    "▁chur": 1849,
    "▁Tem": 1850,
    "Ü": 1851,
    "Í": 1852,
    "uth": 1853,
    "▁Jer": 1854,
    "ould": 1855,
    "▁bel": 1856,
    "alk": 1857,
    "▁Jew": 1858,
    "▁Jes": 1859,
    "oney": 1860,
    "▁Cha": 1861,
    "û": 1862,
    "hil": 1863,
    "▁obe": 1864,
    "▁hop": 1865,
    "pter": 1866,
    "óp": 1867,
    "▁wis": 1868,
    "oses": 1869,
    "not": 1870,
    "▁mou": 1871,
    "ós": 1872,
    "▁Gent": 1873,
    "irit": 1874,
    "icked": 1875,
    "augh": 1876,
    "Â": 1877,
    "cri": 1878,
    "ews": 1879,
    "verbs": 1880,
    "hrist": 1881,
    "2)": 1882,
    "▁judg": 1883,
    "iles": 1884,
    "▁ans": 1885,
    "́": 1886,
    "til": 1887,
    "oug": 1888,
    "fter": 1889,
    "▁author": 1890,
    "Ä": 1891,
    "▁Script": 1892,
    "ï": 1893,
    "▁suf": 1894,
    "Ú": 1895,
    "Ö": 1896,
    "Ã": 1897,
    "band": 1898,
    "▁Dav": 1899,
    "ambém": 1900,
    "oly": 1901,
    "gether": 1902,
    "“": 1903,
    "ORD": 1904,
    "▁fri": 1905,
    "▁Abra": 1906,
    "Ô": 1907,
    "ways": 1908,
    "ù": 1909,
    "ÁRIO": 1910,
    "À": 1911,
    "|": 1912,
    "ighte": 1913,
    "^": 1914,
    "RIO": 1915,
    "ighteous": 1916,
    "▁repl": 1917,
    "”": 1918,
    "ë": 1919,
    "cript": 1920,
    "LOS": 1921,
    "Õ": 1922,
    "­": 1923,
    "gth": 1924,
    "▁GLOSS": 1925,
    "€": 1926,
    "roy": 1927,
    "rael": 1928,
    "ittle": 1929,
    "alem": 1930,
    "󽠐": 1931,
    "°": 1932,
    "▁próp": 1933,
    "̈": 1934,
    "rong": 1935,
    "`": 1936,
    "[": 1937,
    "1)": 1938,
    "%": 1939,
    "󽠠": 1940,
    "ၤ": 1941,
    "ာ": 1942,
    "ါ": 1943,
    "လ": 1944,
    "မ": 1945,
    "ပ": 1946,
    "ဂ": 1947,
    "»": 1948,
    "~": 1949,
    "usband": 1950,
    "󽼒": 1951,
    "󽻼": 1952,
    "󽻵": 1953,
    "󽢷": 1954,
    "󽠃": 1955,
    "☻": 1956,
    "▁morn": 1957,
    "—": 1958,
    "–": 1959,
    "က": 1960,
    "È": 1961,
    "«": 1962,
    "wth": 1963,
    "usalem": 1964,
    "#": 1965,
    "󽼡": 1966,
    "󽼝": 1967,
    "󽼏": 1968,
    "󽼈": 1969,
    "󽼃": 1970,
    "󽼀": 1971,
    "󽻶": 1972,
    "󽻮": 1973,
    "󽻭": 1974,
    "󽻣": 1975,
    "󽻠": 1976,
    "󽻜": 1977,
    "󽪸": 1978,
    "󽨗": 1979,
    "󽦡": 1980,
    "󽤵": 1981,
    "󽡼": 1982,
    "󽠪": 1983,
    "󽠦": 1984,
    "󽠤": 1985,
    "󽠡": 1986,
    "󽠓": 1987,
    "󽠒": 1988,
    "￼": 1989,
    "♥": 1990,
    "♣": 1991,
    "☺": 1992,
    "■": 1993,
    "ý": 1994,
    "ñ": 1995,
    "Î": 1996,
    "uthor": 1997,
    "$": 1998,
    "<pad1999>": 1999
}