<unk>
<pad>
<s>
</s>
>
▁<
▁<2
▁<4
dict
de
en
br
pt
us
,
▁the
.
sent
ca
fr
▁and
-
s
▁to
▁of
▁Verse
a
t
n
▁you
▁a
ar
o
ing
▁in
ed
er
es
▁I
y
▁he
al
m
i
▁will
or
l
c
an
▁S
'
▁for
u
p
▁m
e
▁"
▁that
in
▁be
▁p
b
r
g
▁is
on
is
▁God
▁c
re
f
it
_
▁C
▁s
▁b
le
at
as
▁P
▁A
d
▁his
▁f
▁with
▁M
el
ir
▁de
▁rwth
▁B
se
▁l
▁was
▁they
il
h
▁E
▁who
▁
v
k
ia
te
▁him
A
ro
▁not
▁me
▁your
st
▁d
▁G
ra
ur
▁t
▁have
▁all
▁are
▁T
▁g
w
▁from
▁them
os
ol
z
▁And
2
ent
▁F
▁it
▁L
▁Jesus
▁re
th
é
▁do
ch
ic
▁on
1
:
▁as
om
am
▁we
▁w
ig
et
▁people
▁H
ter
O
▁2
\
3
▁st
▁my
I
▁h
▁R
▁v
un
▁D
▁but
ha
)
5
ut
▁He
▁N
im
4
?
ve
▁3
E
ly
▁The
▁K
▁this
um
▁n
der
ie
."
▁their
ão
▁r
S
ion
ot
he
▁W
▁se
▁J
6
L
▁ca
ho
x
est
id
▁said
9
!
▁an
T
ag
8
▁But
ge
em
▁so
ce
▁(
;
ul
ll
ant
▁e
▁by
ac
7
D
▁man
ou
.\
ation
▁or
ver
▁were
▁us
to
▁at
la
ad
ung
▁what
io
▁o
R
▁one
U
ab
ist
▁am
▁had
▁V
C
qu
ü
▁no
▁O
ri
▁Then
á
▁con
ä
▁LORD
ine
ers
▁out
ate
▁ab
0
ow
▁when
be
M
▁So
▁if
ast
ide
P
ure
▁up
▁know
me
200
í
▁Lord
▁j
▁has
▁For
▁go
and
▁al
▁there
▁her
end
▁sa
▁4
ne
ip
▁ex
if
▁Pr
▁qu
▁br
one
ct
]
au
▁[
▁ro
ah
▁pro
▁Christ
B
▁co
N
co
ive
▁ver
pe
▁can
▁our
▁un
ort
ay
iz
ap
ud
ment
ica
▁ha
ise
ill
▁--
▁about
ira
ain
▁come
ber
▁1
▁sin
ado
ire
▁those
ke
▁k
op
che
her
ma
ry
ug
▁They
▁she
ess
▁ar
▁because
H
▁into
▁pr
ck
ies
▁le
so
our
▁king
ak
nd
les
▁per
G
do
oc
ind
ish
ass
▁give
od
ness
W
▁like
av
up
▁sp
▁day
j
▁good
▁say
ord
▁In
▁son
▁You
ai
ard
lo
iv
ian
▁pre
art
▁way
ens
ina
▁over
▁person
▁ra
ção
are
▁bo
▁en
▁see
all
fe
ente
00
ful
▁5
▁es
ust
▁tr
res
ó
▁-
▁other
▁right
AR
10
ier
▁great
▁gr
ach
hr
▁lo
▁things
ight
ign
▁time
▁even
▁love
!"
F
ont
ice
▁Mar
ile
ss
ub
?"
iah
▁fe
ok
ost
▁gra
ite
▁cl
▁When
ze
ble
sed
ran
▁'
▁earth
▁heaven
▁let
cer
▁Be
▁been
▁shall
▁life
sc
ved
▁tra
▁th
und
▁now
▁don
▁than
▁down
ru
sch
▁pl
▁tell
V
▁An
ep
iro
▁these
▁car
▁name
▁before
▁came
▁law
▁then
201
▁SC
red
sp
ue
▁must
ib
▁Z
▁how
▁went
▁also
ult
▁own
:1
ação
nt
▁mar
▁com
▁Ar
▁faith
led
▁Al
▁ne
▁some
▁fa
▁men
▁par
▁through
▁every
▁¶
▁CM
▁Sch
>\
fer
ico
ual
ça
ings
ix
we
ious
per
▁work
ded
hen
▁more
▁want
po
ath
har
▁em
▁sent
▁St
▁many
han
,"
▁MEL
▁away
ais
az
row
▁world
ven
▁U
▁sha
ome
rit
ö
▁look
▁same
▁fl
mer
use
▁2.
▁est
▁again
ten
▁mo
gu
ik
▁3.
▁ad
▁only
int
▁fr
▁rep
ê
▁just
pl
▁4.
▁des
▁Re
▁não
▁would
▁told
ity
▁Israel
bo
ick
▁po
AN
men
og
▁any
▁da
▁evil
▁heart
ore
▁back
ER
▁5.
▁Le
▁Spirit
▁saw
▁6.
▁As
▁We
▁should
▁ent
▁hand
age
▁8.
ase
ff
ner
orn
▁made
▁z
▁7.
ress
va
▁make
▁é
cl
ß
▁ter
old
(
▁dis
▁understand
ade
ien
▁9.
▁against
▁eat
ert
pp
▁10.
▁never
du
gar
gen
▁did
▁live
cha
▁11.
▁which
▁Son
▁bl
▁two
▁sh
iss
è
▁res
▁unto
da
▁12.
idade
▁children
▁asked
ria
▁left
ors
▁after
man
ock
▁13.
▁father
▁long
ty
▁Paul
▁house
ance
ich
iel
▁Father
▁sign
ç
▁disciples
here
▁Ab
▁14.
ial
ous
▁replied
▁where
▁6
▁This
▁called
ger
▁comp
▁follow
cia
eb
ere
ound
▁Chapter
ves
ward
▁first
▁te
<
able
ars
▁ac
▁heard
▁It
▁here
▁turn
ew
ft
icht
▁If
▁rem
The
▁help
▁cont
ern
▁cor
ans
den
▁pray
:2
▁wicked
ond
ura
▁15.
jo
vo
▁land
ence
que
▁el
▁pe
▁She
▁ol
(2)
.'
chen
mo
out
▁power
cre
ts
▁ag
▁thou
▁Ver
▁each
ana
▁beg
ong
uf
▁Lu
▁could
▁gave
▁take
ild
ima
▁Se
J
ú
▁De
▁Deus
▁Jerusalem
▁No
▁li
▁put
▁Ad
▁que
▁get
▁sch
▁servant
▁16.
▁become
▁dead
ised
ons
▁im
▁truth
(1)
thing
â
▁ye
OS
▁Y
▁para
▁stand
▁conf
mb
▁acc
▁sinal
▁Q
▁everything
▁set
▁thy
▁woman
▁pessoa
▁17.
▁city
▁speak
AS
let
▁ap
▁wise
ake
▁ch
▁given
▁destroy
▁righteous
▁tre
▁years
You
▁col
ada
ito
itt
uch
▁bring
ias
ren
▁19
▁Jo
▁days
▁everyone
inho
ally
▁among
▁spirit
▁teach
ES
ste
ift
"
ato
▁18.
▁anyone
▁ser
▁won
20
IS
ations
ida
lich
ieren
▁comm
hed
hes
hy
ree
▁others
▁place
ara
▁words
ater
▁pass
nIf
▁ask
▁cho
▁sw
▁ele
▁gl
▁happen
▁ple
arm
ora
car
cul
▁agent
▁why
kt
of
▁Me
▁head
▁hear
/
RI
gra
vel
▁7
▁8
▁light
tar
▁Peter
▁app
▁wor
AL
▁very
no
oss
rar
▁himself
go
▁El
ins
par
▁brothers
▁inter
▁new
▁part
▁show
▁think
dic
ific
oun
▁Man
▁end
Y
isch
read
▁old
▁took
ds
self
▁19.
▁Her
▁att
▁sal
ied
ng
▁inst
▁ang
IN
▁John
▁ref
▁vis
ene
▁Let
▁Sign
▁honor
▁its
▁dec
ME
inha
▁bu
▁glory
▁home
▁death
▁fool
▁mas
▁three
ple
▁er
▁sins
▁20.
▁mother
▁sup
ked
ux
▁Am
af
ction
ders
▁bar
▁believe
hl
ht
quer
▁UF
ang
ever
sa
▁fall
▁upon
9.
ack
cher
ely
▁esc
▁fra
▁prom
▁tem
ador
▁Is
▁dé
▁god
▁off
▁sur
▁wat
ize
ters
▁Abraham
▁There
▁holy
ning
▁Te
▁water
▁wife
bl
fl
hat
ime
ps
ried
▁together
ale
ante
▁Temple
▁bre
▁done
▁fil
▁keep
▁nós
▁reg
ela
▁ass
▁command
▁fal
▁gu
▁kn
01
tern
▁Holy
▁another
▁saying
IA
eth
for
ras
▁brought
▁ear
▁listen
▁living
▁obey
▁offer
▁resp
▁until
ait
att
iar
▁21.
▁cur
0.
EL
na
▁message
▁plan
▁rest
▁send
1.
iver
ivo
zen
▁cle
▁anim
▁ins
▁kind
sel
▁body
arn
form
imento
▁Jews
▁che
▁dem
▁does
▁liv
▁night
▁por
OR
▁At
▁Now
▁nothing
▁test
ember
ged
ua
▁face
▁la
▁lead
▁need
▁wisdom
aca
ather
bre
ude
▁die
▁ir
▁says
RO
als
less
oud
ough
▁9
▁Proverbs
▁find
▁friend
▁gre
▁na
▁thee
aut
ient
ob
sy
▁Pro
▁cro
▁um
AD
reat
▁Don
▁cha
▁prophe
▁sil
▁while
ido
ood
ove
▁mouth
▁someone
▁too
▁tw
▁walk
son
▁Th
▁much
▁seven
000
▁call
▁dire
▁strong
2.
ions
▁22.
▁eyes
▁fire
ino
rer
urn
▁ban
▁desc
▁found
▁without
ace
aled
hn
min
pect
ph
▁food
▁high
▁jo
▁mor
TO
lic
pre
▁*
▁Un
ared
▁Car
▁far
▁meet
▁sla
▁worship
ame
ã
▁exp
IL
aid
▁began
▁read
udar
vers
▁money
▁sem
▁sor
He
oura
▁dia
▁may
EN
igh
pr
▁enter
▁har
▁int
▁poor
day
ior
à
▁word
este
itar
oup
za
▁18
▁Phil
▁drink
▁fin
▁open
▁peace
▁ste
K
com
ink
▁23.
▁always
▁bet
▁eu
▁giv
▁ob
ben
fa
inar
ought
thy
är
▁Bo
▁care
▁cir
▁crowd
▁div
▁enc
ique
ject
ken
rie
ute
▁Ze
▁dif
▁hands
▁joy
ÃO
▁answer
▁brother
▁priests
▁sc
ull
▁bless
▁fo
▁writ
ites
▁Fra
▁angel
▁sat
▁sm
▁well
ô
▁GLOSSÁRIO
▁around
▁nor
agem
ated
ba
cest
ista
lt
mp
ote
ês
ör
▁10
▁12
▁enem
▁family
▁little
▁trou
3.
bel
ement
ince
ja
ule
ür
▁Est
▁Sam
▁ce
▁child
▁kill
iana
ison
nen
oke
ola
ologia
right
uss
▁24.
▁His
▁believers
▁clo
▁ge
▁sy
▁under
dom
ents
land
▁Sp
▁arm
▁true
X
des
ço
▁bir
▁coming
▁spe
fen
left
▁Ol
▁bad
▁four
▁gold
▁pal
▁sisters
▁stay
▁talk
imo
vor
▁Con
▁arri
▁crow
▁id
▁ou
▁return
igo
leep
ying
▁25.
▁Moses
▁On
▁That
▁near
▁pat
▁still
▁y
TE
ago
air
ham
ible
▁belie
▁belong
▁char
▁rel
▁sl
hose
▁What
▁full
▁nome
dos
▁Do
▁Kingdom
▁accept
▁fac
▁fut
▁mat
Z
iet
ita
▁13
▁hard
▁might
▁sit
▁wrong
amb
▁Good
▁authority
▁cause
▁pres
▁receive
▁shout
But
aven
bs
ished
ized
oso
ruction
▁All
▁sacr
▁seed
▁sho
▁vo
con
inc
nS
▁Fe
▁tak
▁ve
▁vocês
ches
▁David
▁King
▁Ne
▁av
▁cr
▁fear
▁forg
▁human
▁preach
▁suffer
ave
cy
entro
gua
ulo
▁Br
▁being
▁bur
▁church
▁dev
▁dist
▁ma
▁mer
▁sim
▁soon
▁though
▁wit
4.
ane
gue
ismo
laim
now
own
selves
ta
ther
uc
▁both
▁ever
▁inv
▁sub
▁young
ager
mar
rio
ungs
vore
ér
▁imp
▁pun
▁such
▁town
▁tri
ON
dução
ário
ência
▁14
▁Scriptures
▁cour
▁didn
▁feet
ash
asse
bro
fore
ified
imon
ory
ular
var
▁Bar
▁Daniel
▁News
▁comes
▁min
▁nam
▁offic
▁soul
▁swe
▁throw
▁wine
RA
esch
illed
ump
ée
▁26.
▁My
▁better
▁grace
▁lives
▁pra
cept
cht
ivers
ives
ks
mel
ray
xo
Ç
▁27.
▁Lo
▁bapt
▁cannot
▁going
▁real
▁sec
aus
bar
dem
ict
imagem
ião
je
med
uel
É
▁11
▁Ge
▁Par
▁dark
▁doing
▁finish
▁forever
▁thir
▁whole
5.
▁16
▁died
▁fruit
▁mon
▁relig
▁ten
ité
ley
rom
▁One
▁along
▁hor
▁ke
▁next
:3
amp
sen
xt
▁Com
▁Fl
▁apost
▁count
▁prov
▁wom
11
MD
abb
icar
ingu
ler
vern
▁17
▁later
▁opp
▁pur
▁themselves
▁voice
iter
▁Sil
▁auf
▁gener
▁last
▁sons
▁trans
VC
VF
gel
ij
ith
uz
▁Judah
▁Ma
▁daugh
▁judgment
▁lar
▁learn
▁whom
104
ille
ledge
▁AS
▁Gentiles
▁Phar
▁appe
▁bread
▁etern
wer
▁Mess
▁hope
▁poss
▁thing
▁trust
103
109
aby
dade
gy
ountain
uar
uito
▁Gal
▁action
▁means
106
2007
INA
cial
elle
iat
ição
ush
▁Mo
▁fiel
▁hom
▁pesso
▁praise
108
50
Th
bra
hold
ience
ined
ips
stead
ula
Á
▁28.
▁After
▁Er
▁adv
▁dear
▁express
▁plant
▁prof
▁rich
▁stop
▁wall
▁yet
PO
What
cess
head
ief
iva
▁Mor
▁blood
▁ré
▁sick
▁teacher
▁tree
107
6.
ition
olo
zer
▁born
▁husband
▁returned
ander
ila
ton
vest
▁Sinal
▁corre
▁dar
▁fell
▁guard
▁mean
▁nat
▁rece
14
ando
hren
jet
ling
pa
uer
▁Jewish
▁angels
▁aw
▁filled
▁hearts
▁jud
▁seen
EI
gr
ines
ividade
nW
rol
ros
▁afr
▁bow
▁wind
7.
amento
aul
ete
lly
upo
urt
▁Maria
▁Pe
▁Sant
▁continue
▁fre
▁hon
▁leaders
▁leave
▁wh
8.
TA
bras
llen
phe
ving
zar
▁15
▁En
▁clot
▁comple
▁desp
▁dra
▁gat
▁met
▁morning
▁since
▁ta
cal
isar
ned
▁ev
▁fore
▁gone
▁hath
▁mercy
▁rul
cle
uro
át
ôn
▁contin
▁dan
▁hum
▁priest
▁prophets
▁sk
▁sun
side
the
xto
▁20
▁aut
▁beca
▁pare
▁porque
▁written
ived
q
riting
very
ín
▁cal
anguage
dle
rength
▁pri
And
MA
fo
ional
ount
▁Your
▁também
▁import
▁thr
▁cat
▁ed
▁sou
llow
▁0
▁use
bal
hão
ém
▁ey
IC
aug
▁fam
▁amar
▁disc
inal
.<
esso
*
If
▁Libras
+
▁discip
Q
ld
olog
way
▁dr
angu
ento
▁ho
come
▁ba
get
▁happ
Ó
▁Ap
▁voc
▁dest
erson
ily
pen
▁Jud
@
eter
▁bod
irst
uit
▁próprio
inais
ures
▁lea
ship
ife
other
ilho
▁pla
õ
▁serv
▁sis
lood
▁mess
▁ret
acher
ople
ower
sh
ên
▁hel
▁surdo
▁list
stand
’
cr
ibras
▁Dan
▁gen
wn
î
uth
Ü
▁Tem
▁chur
Í
▁Jer
▁letras
▁bel
alk
ould
Ê
▁Jes
▁Jew
oney
hil
û
pter
▁Cha
▁obe
oses
▁wis
óp
▁mou
▁hop
ós
▁Gent
augh
irit
cri
icked
not
Â
=
ews
hrist
verbs
2)
iles
▁judg
́
▁ans
fter
oug
til
&
Ä
ï
▁author
band
Ã
Ö
Ú
▁Script
▁suf
▁Dav
ambém
gether
oly
ORD
“
Ô
▁fri
RIO
^
ighte
|
À
ÁRIO
ù
▁Abra
ighteous
LOS
cript
ë
”
ways
­
▁repl
gth
Õ
alem
ittle
rael
roy
€
▁GLOSS
°
1)
[
`
rong
̈
▁próp
%
usband
~
»
ဂ
ပ
မ
လ
ါ
ာ
ၤ
#
usalem
wth
«
È
က
—
▁morn
☻
$
uthor
Î
ñ
ý
–
■
☺
♣
♥
￼
